<unk>	0
<s>	0
</s>	0
,	-3.16261
.	-3.37332
▁the	-3.72709
s	-3.91122
▁in	-4.29894
▁of	-4.38068
▁	-4.4462
▁die	-4.46565
▁and	-4.48377
▁der	-4.51597
▁to	-4.54404
▁und	-4.5591
en	-4.7428
▁a	-4.89029
-	-4.96649
e	-5.00909
n	-5.14707
▁is	-5.19427
▁zu	-5.4385
▁that	-5.45722
▁for	-5.49108
▁den	-5.53797
▁von	-5.55626
▁ist	-5.71606
▁be	-5.73818
▁für	-5.74647
er	-5.74673
▁on	-5.76918
▁an	-5.83489
▁mit	-5.86018
▁auf	-5.86409
▁das	-5.88156
▁with	-5.89072
▁The	-5.91079
▁I	-5.92176
▁des	-5.9494
▁are	-5.96005
▁(	-5.96195
ing	-6.03678
▁eine	-6.04425
▁this	-6.11066
▁im	-6.1181
▁ein	-6.13014
t	-6.14326
▁Sie	-6.14776
▁as	-6.14931
▁nicht	-6.16633
▁we	-6.19668
:	-6.20543
▁it	-6.20627
▁werden	-6.22364
▁-	-6.24205
▁by	-6.25991
▁not	-6.26471
▁dem	-6.27456
▁have	-6.2783
d	-6.28136
r	-6.2928
▁dass	-6.30549
▁sich	-6.30773
▁Die	-6.31088
)	-6.32172
ed	-6.32461
▁wir	-6.32907
'	-6.33008
▁you	-6.34028
▁es	-6.36683
▁will	-6.37669
▁which	-6.419
▁auch	-6.44667
▁was	-6.46851
▁from	-6.46932
▁sind	-6.52658
es	-6.53706
▁In	-6.55399
▁at	-6.56382
▁or	-6.57144
▁wird	-6.58891
▁has	-6.59337
▁über	-6.67907
▁als	-6.69175
▁um	-6.69557
▁all	-6.71437
▁can	-6.73031
▁so	-6.73259
▁ich	-6.74251
▁oder	-6.76711
m	-6.79726
▁also	-6.79786
▁aus	-6.80708
▁haben	-6.80963
▁European	-6.81003
▁our	-6.81195
▁"	-6.86442
▁hat	-6.88019
▁sie	-6.89363
▁wie	-6.89679
▁einer	-6.89853
?	-6.9303
y	-6.93795
ly	-6.95289
▁A	-6.95482
▁zur	-6.9574
▁bei	-6.97223
▁We	-6.99514
!	-7.00473
▁Union	-7.00792
▁Das	-7.02473
a	-7.03285
▁einen	-7.03312
▁your	-7.04105
o	-7.08102
▁Ich	-7.09022
▁können	-7.09906
▁but	-7.12207
▁nach	-7.12958
▁am	-7.17157
▁–	-7.17215
▁vor	-7.17648
▁its	-7.17697
▁would	-7.18062
▁more	-7.18685
▁einem	-7.19017
▁their	-7.19111
/	-7.19873
▁durch	-7.20857
▁Wir	-7.21131
’	-7.21151
in	-7.21983
al	-7.22827
"	-7.22954
▁diese	-7.23002
▁zum	-7.23592
▁It	-7.24659
▁uns	-7.24827
▁This	-7.25801
▁been	-7.26245
▁EU	-7.26893
▁Mr	-7.27034
▁one	-7.27036
▁de	-7.27117
▁nur	-7.27474
▁should	-7.29755
;	-7.30003
▁S	-7.30534
▁kann	-7.31346
▁er	-7.33368
▁Der	-7.35432
▁do	-7.35631
▁Es	-7.37517
▁dieser	-7.37939
▁Commission	-7.38264
▁Kommission	-7.3897
▁must	-7.40865
▁very	-7.41268
▁daß	-7.42561
ung	-7.43291
▁new	-7.4404
▁other	-7.44937
▁there	-7.45981
▁wurde	-7.46208
i	-7.46223
▁noch	-7.47059
▁Hotel	-7.4769
▁time	-7.48822
▁they	-7.49391
▁like	-7.50838
▁only	-7.51049
▁aber	-7.51161
▁Herr	-7.51658
▁President	-7.52022
▁who	-7.52195
de	-7.52577
▁wenn	-7.52656
▁about	-7.52712
st	-7.54016
▁sein	-7.54852
▁E	-7.55398
▁man	-7.56281
▁sehr	-7.56487
▁war	-7.56809
te	-7.57921
▁müssen	-7.58145
▁no	-7.60712
▁up	-7.61893
▁ver	-7.6294
▁these	-7.6443
k	-7.64708
B	-7.65137
▁diesem	-7.65616
S	-7.67349
▁us	-7.67949
or	-7.68078
▁if	-7.68892
g	-7.69372
▁alle	-7.69431
▁mehr	-7.69481
▁out	-7.70155
▁unter	-7.70512
▁any	-7.70755
re	-7.71497
▁Europäischen	-7.72591
▁people	-7.72993
▁Europe	-7.74242
▁re	-7.74624
ten	-7.74845
▁into	-7.74894
z	-7.74971
▁bis	-7.76376
an	-7.77032
▁B	-7.77334
▁were	-7.77449
▁well	-7.78966
▁such	-7.79029
▁Parliament	-7.79163
▁möchte	-7.79664
).	-7.79716
▁un	-7.80553
▁report	-7.81562
th	-7.81577
▁States	-7.81786
▁what	-7.82418
h	-7.82984
▁Member	-7.83045
▁2	-7.83137
▁my	-7.83956
l	-7.84189
▁need	-7.84902
▁1	-7.85542
▁C	-7.85719
▁countries	-7.85873
▁ihre	-7.8709
c	-7.87145
▁than	-7.87554
▁Ein	-7.87591
be	-7.87985
▁work	-7.88281
▁his	-7.88323
A	-7.88396
w	-7.88601
▁vom	-7.88937
▁Bericht	-7.88983
▁he	-7.89853
▁when	-7.90162
▁Council	-7.90268
▁some	-7.90762
▁make	-7.90995
▁use	-7.91095
f	-7.91424
▁Präsident	-7.9148
den	-7.91493
▁most	-7.91684
▁G	-7.91752
▁sowie	-7.91785
▁first	-7.92211
▁hotel	-7.92747
▁important	-7.9426
b	-7.94718
▁now	-7.94916
▁Parlament	-7.95641
▁gibt	-7.95836
▁many	-7.95905
ge	-7.95933
▁hier	-7.96
▁between	-7.96201
▁ge	-7.96255
▁over	-7.96874
▁eines	-7.97117
▁dieses	-7.97538
ation	-7.97635
▁keine	-7.98307
▁because	-7.98652
▁take	-7.98687
▁ab	-7.99109
ch	-7.99224
▁zwischen	-8.00278
▁Im	-8.01054
▁muss	-8.01718
ar	-8.01735
▁them	-8.01825
▁An	-8.02129
▁unsere	-8.02374
▁P	-8.03188
▁3	-8.03733
▁support	-8.04052
▁two	-8.05001
▁information	-8.06081
▁„	-8.06407
us	-8.06734
▁T	-8.07302
▁Europa	-8.07315
...	-8.07399
▁Ihnen	-8.07591
▁just	-8.07717
le	-8.08027
▁had	-8.08346
D	-8.08397
▁D	-8.08607
▁Ver	-8.08609
▁F	-8.08749
▁made	-8.0972
▁anderen	-8.09922
▁way	-8.10524
▁da	-8.10984
▁those	-8.11114
),	-8.11253
p	-8.11351
▁years	-8.11639
▁Zeit	-8.11728
F	-8.1207
▁world	-8.12409
▁Mitgliedstaaten	-8.12528
▁Be	-8.13484
ers	-8.13682
▁If	-8.13839
▁immer	-8.13986
it	-8.13989
▁Er	-8.14159
▁K	-8.14368
C	-8.14416
to	-8.14773
▁policy	-8.14936
▁where	-8.15245
▁Re	-8.15631
u	-8.15836
▁Wenn	-8.16304
▁So	-8.16584
▁dann	-8.17904
▁being	-8.17919
▁As	-8.19763
▁may	-8.19785
▁Diese	-8.20578
▁damit	-8.2075
▁system	-8.20809
▁good	-8.21008
▁“	-8.21238
▁even	-8.21394
▁For	-8.21712
▁part	-8.22207
▁diesen	-8.2224
se	-8.2232
▁'	-8.2235
▁wurden	-8.22932
K	-8.23001
able	-8.23001
▁Frau	-8.2312
▁gegen	-8.23675
▁right	-8.23785
▁Entwicklung	-8.24144
ver	-8.24147
▁Rat	-8.2435
et	-8.24415
▁order	-8.24895
▁area	-8.25426
▁Ihre	-8.25762
der	-8.26201
sch	-8.27303
▁unserer	-8.27482
▁year	-8.27816
em	-8.28424
▁me	-8.28758
▁place	-8.28877
▁market	-8.28942
on	-8.29331
▁seine	-8.29509
ter	-8.29615
▁here	-8.29929
▁Europäische	-8.30134
▁M	-8.30722
▁habe	-8.30873
▁W	-8.31009
▁...	-8.31189
ion	-8.31215
▁sondern	-8.31435
▁neue	-8.31629
▁Menschen	-8.32256
▁19	-8.32277
▁jedoch	-8.32316
▁through	-8.32399
ne	-8.32416
▁same	-8.32524
▁You	-8.32648
▁5	-8.33013
“	-8.33162
▁after	-8.33354
2	-8.33677
▁zwei	-8.33957
▁possible	-8.34008
M	-8.34203
ur	-8.34356
▁e	-8.3441
E	-8.34916
▁want	-8.35032
▁Mit	-8.35048
P	-8.35079
▁own	-8.35228
▁Welt	-8.35423
G	-8.35467
▁see	-8.35776
▁Jahr	-8.36114
T	-8.36422
▁development	-8.365
▁heute	-8.36737
▁Ab	-8.36777
▁find	-8.37033
▁could	-8.37063
▁economic	-8.37212
um	-8.37348
▁political	-8.37509
▁There	-8.37948
com	-8.38049
il	-8.38116
ic	-8.38143
ieren	-8.38545
x	-8.39043
▁10	-8.39233
▁L	-8.39443
▁international	-8.39499
▁wo	-8.39941
▁fact	-8.4023
▁within	-8.40276
▁4	-8.40814
el	-8.40918
▁la	-8.41129
▁against	-8.41157
▁rights	-8.41314
▁under	-8.4164
ischen	-8.41748
▁public	-8.41751
▁mich	-8.4187
▁much	-8.42152
▁bereits	-8.42264
ity	-8.42424
▁both	-8.42511
▁europäischen	-8.42604
▁sollte	-8.42657
at	-8.42773
is	-8.42923
▁Aus	-8.43027
▁andere	-8.43593
ll	-8.43733
▁how	-8.43738
▁used	-8.43759
ist	-8.43856
▁selbst	-8.44196
▁high	-8.44218
▁ohne	-8.44311
me	-8.44437
na	-8.44626
▁Jahren	-8.44664
▁view	-8.44744
▁neuen	-8.44755
▁therefore	-8.44823
▁number	-8.44996
▁V	-8.45732
▁ganz	-8.45864
▁ihrer	-8.45985
▁Auf	-8.46257
”	-8.46366
iert	-8.46552
▁Frage	-8.46638
▁social	-8.4668
▁per	-8.47074
▁m	-8.47236
sten	-8.47351
▁point	-8.47393
▁free	-8.477
▁country	-8.47762
▁He	-8.47908
▁pro	-8.47943
▁Land	-8.48123
▁wieder	-8.48166
ment	-8.48763
▁does	-8.49112
▁know	-8.49362
▁without	-8.49435
▁O	-8.49636
▁last	-8.49856
▁La	-8.49874
▁great	-8.4993
R	-8.50211
▁ob	-8.50288
▁services	-8.50593
▁long	-8.50624
5	-8.5079
▁believe	-8.50874
▁different	-8.50932
▁still	-8.50949
▁end	-8.5197
▁viele	-8.52071
1	-8.52469
▁sollten	-8.52777
▁To	-8.52824
W	-8.52858
ta	-8.52869
▁get	-8.53218
ig	-8.53271
▁finden	-8.53369
▁national	-8.53438
N	-8.53636
▁room	-8.54679
ra	-8.55016
▁bietet	-8.55026
▁say	-8.55596
▁before	-8.55625
▁N	-8.55736
▁available	-8.56512
▁machen	-8.56838
▁H	-8.5688
▁future	-8.56917
ia	-8.56935
▁dazu	-8.57126
▁service	-8.57501
▁her	-8.57759
▁Unternehmen	-8.57981
▁Vor	-8.57981
▁already	-8.58158
▁liegt	-8.58226
H	-8.58773
▁weil	-8.58958
▁All	-8.58963
▁human	-8.59027
▁Recht	-8.59177
lich	-8.59267
▁De	-8.59907
▁du	-8.60049
▁course	-8.60247
▁Euro	-8.60279
▁able	-8.606
▁Le	-8.61466
▁That	-8.61708
▁think	-8.61739
▁But	-8.62003
▁process	-8.6205
▁Arbeit	-8.62271
▁darauf	-8.62317
▁today	-8.62518
co	-8.6252
▁set	-8.62523
▁d	-8.62548
▁Maßnahmen	-8.62562
▁Lage	-8.62648
▁best	-8.62761
▁cannot	-8.62875
ive	-8.62987
▁seiner	-8.63114
▁data	-8.63296
▁geht	-8.63336
▁products	-8.63503
ä	-8.63629
▁jetzt	-8.63643
▁Commissioner	-8.63857
O	-8.63946
gen	-8.64058
▁Bereich	-8.64654
▁Art	-8.64726
▁case	-8.64764
V	-8.64869
▁real	-8.64881
▁einige	-8.64953
▁allen	-8.65563
▁bin	-8.65676
▁20	-8.66002
▁ihr	-8.66053
▁schon	-8.66076
▁Ge	-8.66096
ma	-8.6616
▁small	-8.66329
00	-8.66342
no	-8.66364
▁question	-8.66651
▁too	-8.66726
ce	-8.66883
▁level	-8.67023
▁Internet	-8.67158
▁access	-8.67163
▁financial	-8.6736
▁Informationen	-8.67451
▁Nach	-8.67648
ü	-8.67777
ern	-8.67846
▁debate	-8.67886
▁R	-8.67893
▁dafür	-8.67946
3	-8.68317
▁issue	-8.68351
▁offers	-8.68357
▁Jahre	-8.68606
▁denen	-8.68917
▁&	-8.69002
▁[[	-8.69065
▁Stadt	-8.69171
▁18	-8.69291
▁Zimmer	-8.69463
▁6	-8.69466
▁day	-8.69877
▁Daten	-8.70001
▁%	-8.70764
▁said	-8.70934
▁15	-8.71
▁help	-8.71006
▁Eine	-8.71016
▁since	-8.71107
ab	-8.71111
la	-8.71238
ste	-8.71311
▁Herrn	-8.71314
ir	-8.7132
▁during	-8.71348
▁proposal	-8.71376
▁Um	-8.71446
▁city	-8.71636
▁Da	-8.71709
▁allem	-8.72227
▁viel	-8.72418
▁example	-8.72606
▁ihren	-8.72822
▁Wie	-8.72964
as	-8.72966
▁Teil	-8.72974
▁con	-8.73011
▁clear	-8.73075
▁meine	-8.7323
▁ensure	-8.7323
▁mir	-8.73378
▁And	-8.73834
▁At	-8.74007
▁würde	-8.7425
▁Z	-8.74651
▁denn	-8.74726
zu	-8.74878
▁means	-8.74913
ry	-8.74949
▁gut	-8.74951
ke	-8.74988
▁situation	-8.75244
▁Ziel	-8.75248
▁quality	-8.75294
▁each	-8.75768
man	-8.75808
os	-8.75917
▁back	-8.75967
ische	-8.75999
▁far	-8.76165
▁particular	-8.76306
▁unseren	-8.76492
▁Committee	-8.76504
▁Rahmen	-8.76508
▁business	-8.76687
▁Für	-8.76954
▁put	-8.77051
▁every	-8.77062
▁Bar	-8.77149
▁offer	-8.77191
▁wollen	-8.77314
▁However	-8.77393
▁Bei	-8.77621
ca	-8.7763
▁weiter	-8.7771
▁Bürger	-8.77796
▁möglich	-8.77989
▁common	-8.78332
▁Our	-8.78554
▁go	-8.78597
▁On	-8.7873
▁7	-8.78739
▁give	-8.79052
▁modern	-8.79059
▁St	-8.79209
▁including	-8.79253
▁few	-8.79293
▁rooms	-8.79506
▁Un	-8.79549
▁China	-8.79748
]]	-8.8033
ve	-8.80531
▁etwas	-8.80768
▁sagen	-8.8078
▁three	-8.80787
▁provide	-8.80907
▁nun	-8.80925
li	-8.81049
▁measures	-8.81207
▁während	-8.81462
bar	-8.81497
ut	-8.81504
ungen	-8.8155
▁large	-8.81656
id	-8.81716
▁result	-8.81794
▁stay	-8.81797
▁Und	-8.81853
▁doch	-8.81884
am	-8.81935
v	-8.82104
ner	-8.82165
land	-8.82291
▁next	-8.82343
▁No	-8.82448
▁Länder	-8.82742
▁tun	-8.82805
▁f	-8.82841
▁come	-8.83014
▁problem	-8.83298
▁seit	-8.83359
▁ersten	-8.83443
▁U	-8.83586
▁agreement	-8.83667
▁energy	-8.83791
L	-8.83798
▁citizens	-8.8389
und	-8.83946
est	-8.84013
▁di	-8.84371
▁Fall	-8.84416
▁J	-8.84466
▁drei	-8.8462
ro	-8.84725
ate	-8.84814
▁again	-8.85025
▁areas	-8.85111
▁soll	-8.85156
ri	-8.85279
▁insbesondere	-8.85364
▁Grund	-8.85714
▁position	-8.85938
▁Kunden	-8.86004
ein	-8.86088
▁12	-8.86155
▁taken	-8.86156
▁welche	-8.86185
▁b	-8.86531
▁hope	-8.86675
▁System	-8.86807
sa	-8.86908
▁life	-8.86918
▁erhalten	-8.86933
▁further	-8.86934
▁Parlaments	-8.8723
▁change	-8.87369
▁Unterstützung	-8.8744
▁special	-8.87482
▁co	-8.87551
▁form	-8.8761
▁US	-8.87685
he	-8.87799
I	-8.87839
▁Namen	-8.88106
ad	-8.88138
un	-8.88437
ster	-8.88479
▁waren	-8.88591
▁shall	-8.88638
▁law	-8.88732
ierung	-8.89085
ent	-8.89289
▁Zusammenarbeit	-8.89419
▁Li	-8.89448
▁open	-8.89496
the	-8.8965
▁With	-8.89655
▁lassen	-8.8992
▁Se	-8.89962
▁Co	-8.90088
▁8	-8.90124
▁Sicherheit	-8.90302
▁problems	-8.90317
▁Problem	-8.9033
▁company	-8.90368
é	-8.90383
▁einfach	-8.90728
j	-8.90854
ler	-8.90887
▁however	-8.91085
▁Vorschlag	-8.91091
▁given	-8.91189
go	-8.91383
▁30	-8.91568
up	-8.91622
ine	-8.91793
▁while	-8.9194
▁beim	-8.92214
▁geben	-8.92275
ci	-8.92326
ze	-8.92344
▁einmal	-8.9242
▁necessary	-8.92491
▁hand	-8.92637
▁besteht	-8.92665
U	-8.92694
▁main	-8.92784
▁stehen	-8.92935
▁legal	-8.93109
▁Group	-8.9312
▁sehen	-8.93295
▁zurück	-8.93338
▁Zu	-8.93477
▁located	-8.93729
▁cooperation	-8.9373
▁security	-8.93924
▁group	-8.93975
min	-8.94014
▁Ro	-8.94016
▁down	-8.94162
▁/	-8.94188
▁always	-8.94194
ness	-8.94328
▁2009	-8.9436
igen	-8.94392
da	-8.94406
▁House	-8.94515
▁vote	-8.94755
▁why	-8.94909
ie	-8.95059
▁protection	-8.95288
▁wichtig	-8.95491
▁Dies	-8.95565
▁present	-8.95594
ant	-8.95836
▁Man	-8.95924
_	-8.96125
▁Fragen	-8.96132
ol	-8.96138
ance	-8.96467
▁local	-8.96579
4	-8.9659
▁steht	-8.96933
▁second	-8.97022
per	-8.97106
ul	-8.97182
▁power	-8.97183
her	-8.97196
▁Ländern	-8.97222
ling	-8.97225
▁production	-8.97308
▁trade	-8.97414
▁United	-8.97435
▁Was	-8.97649
▁sch	-8.97683
chen	-8.97723
▁action	-8.97887
▁wäre	-8.97924
▁wirklich	-8.98225
▁seinen	-8.9873
di	-8.98853
▁What	-8.98866
ft	-8.98877
▁full	-8.98898
▁letzten	-8.98925
▁Sch	-8.98951
▁dabei	-8.99
▁They	-8.99082
ga	-8.99173
▁Mittel	-8.99489
▁Regierung	-8.99524
▁c	-8.9956
▁based	-8.99576
▁große	-8.99663
ka	-8.99677
▁respect	-8.99834
vi	-9.00533
▁Kollegen	-9.00606
▁Ihr	-9.00735
▁global	-9.00793
▁zusammen	-9.01077
▁Bedeutung	-9.01281
▁around	-9.01306
ary	-9.01316
ton	-9.0134
▁muß	-9.01342
▁did	-9.01496
▁working	-9.01626
▁Kommissar	-9.01653
▁worden	-9.01654
▁needs	-9.02036
▁using	-9.02069
▁Community	-9.02076
▁subject	-9.02315
im	-9.02391
▁state	-9.02394
▁kommen	-9.02405
▁design	-9.02417
▁better	-9.02565
ier	-9.02774
ber	-9.02784
ige	-9.02861
▁become	-9.02894
▁These	-9.02944
▁current	-9.03032
▁aller	-9.03783
▁water	-9.03859
▁9	-9.03903
lo	-9.04093
▁Verfügung	-9.04139
▁together	-9.04166
▁|	-9.04195
▁Thema	-9.04414
▁USA	-9.04502
▁whether	-9.04574
▁großen	-9.04661
▁German	-9.04722
▁particularly	-9.04918
▁Am	-9.04953
▁centre	-9.05001
▁role	-9.05001
▁Schutz	-9.05041
▁Seite	-9.05094
▁ent	-9.05178
ism	-9.05435
▁Möglichkeit	-9.0548
▁budget	-9.05825
▁another	-9.06027
▁pre	-9.06062
▁Service	-9.06065
▁Aber	-9.06569
▁When	-9.06617
▁close	-9.06699
▁hin	-9.06718
mo	-9.06832
▁Bo	-9.06883
va	-9.07343
▁davon	-9.07449
▁terms	-9.07546
▁account	-9.07881
▁km	-9.07991
che	-9.08047
▁private	-9.08068
▁Über	-9.08145
▁page	-9.08201
▁Als	-9.08372
▁children	-9.08404
▁p	-9.08495
▁gegenüber	-9.08583
▁Kinder	-9.08693
▁z	-9.08779
▁bieten	-9.08798
liche	-9.08848
▁conditions	-9.08881
▁whole	-9.08894
ous	-9.08967
bau	-9.08969
▁Markt	-9.09031
▁Politik	-9.09131
▁wissen	-9.09352
▁Ende	-9.09493
▁Al	-9.09548
▁kein	-9.09748
▁politischen	-9.09931
▁Umwelt	-9.09932
▁non	-9.10097
▁entfernt	-9.10111
Z	-9.10134
▁ja	-9.10137
▁könnte	-9.10216
▁project	-9.10222
isch	-9.10235
do	-9.10288
▁Auch	-9.1033
▁transport	-9.10381
▁daher	-9.10491
▁Probleme	-9.10598
▁certain	-9.1064
▁Zukunft	-9.10689
▁darüber	-9.1072
▁basis	-9.10728
▁stellen	-9.10937
▁women	-9.1097
▁research	-9.11144
▁Alle	-9.11184
▁erreichen	-9.11345
▁personal	-9.11429
▁natürlich	-9.11524
▁Haus	-9.11546
▁Weg	-9.11562
▁Do	-9.11593
▁sowohl	-9.11831
ti	-9.11924
▁Rolle	-9.11929
▁health	-9.1196
ha	-9.11983
▁experience	-9.1205
▁control	-9.12134
▁industry	-9.12173
▁various	-9.12292
▁hatte	-9.12399
▁Weise	-9.12437
▁unterstützen	-9.12498
▁matter	-9.1254
▁sector	-9.12541
▁2008	-9.12635
▁Hier	-9.12705
▁home	-9.12784
X	-9.12881
▁third	-9.12907
▁Seiten	-9.12925
▁Mar	-9.12941
▁weitere	-9.12963
▁Beispiel	-9.12996
▁really	-9.13034
▁region	-9.13044
▁companies	-9.13088
▁eigenen	-9.13132
▁Frauen	-9.13221
ex	-9.13274
ko	-9.1334
▁unser	-9.13479
▁dort	-9.13489
▁europäische	-9.1354
▁staff	-9.13774
▁found	-9.13775
▁besonders	-9.13801
▁systems	-9.13842
▁X	-9.13904
ting	-9.13941
▁issues	-9.14197
▁2010	-9.14341
▁Energie	-9.14411
▁Staaten	-9.14453
▁befindet	-9.1449
con	-9.14591
▁site	-9.14786
▁specific	-9.14812
▁period	-9.14861
ach	-9.15207
▁car	-9.15331
▁25	-9.15593
nd	-9.15606
ni	-9.15768
▁ca	-9.15808
▁erste	-9.15924
▁single	-9.15943
▁government	-9.15951
▁Tag	-9.15985
▁Meinung	-9.16048
▁create	-9.16058
▁sub	-9.1635
▁wish	-9.16428
(	-9.16447
▁New	-9.16462
age	-9.1663
▁continue	-9.16643
▁done	-9.16681
▁meiner	-9.16701
▁ihnen	-9.1675
▁direkt	-9.16754
▁look	-9.16889
▁million	-9.17034
▁location	-9.17156
▁Mal	-9.17174
▁Mrs	-9.17264
▁se	-9.17274
and	-9.17438
end	-9.1747
▁programme	-9.17471
ated	-9.17485
▁verschiedenen	-9.17515
▁Ihrer	-9.17857
▁rapporteur	-9.17881
▁short	-9.18212
Y	-9.18266
▁environment	-9.18363
▁Artikel	-9.18429
▁innerhalb	-9.18537
▁dis	-9.1857
ck	-9.18612
▁welcome	-9.18631
▁especially	-9.18693
▁major	-9.18765
▁old	-9.1884
7	-9.18919
▁list	-9.18983
▁start	-9.1899
▁vielen	-9.1899
ja	-9.193
pro	-9.19328
▁food	-9.19467
▁50	-9.19471
▁Programm	-9.19558
▁Unter	-9.19594
▁play	-9.197
▁Software	-9.19733
▁thank	-9.19784
▁several	-9.19829
▁zwar	-9.19897
EN	-9.1992
▁decision	-9.19928
6	-9.20012
▁Uhr	-9.20012
▁Germany	-9.20035
▁Ra	-9.20083
▁16	-9.20213
ö	-9.20366
▁i	-9.20715
▁Pro	-9.20817
ik	-9.20859
▁general	-9.21104
que	-9.21114
▁internationalen	-9.21133
lichen	-9.21227
▁14	-9.21253
▁en	-9.21276
▁price	-9.21494
zen	-9.21642
▁positive	-9.21668
▁resolution	-9.21728
▁air	-9.21776
▁alles	-9.21793
ger	-9.21814
▁excellent	-9.21941
▁enjoy	-9.21943
▁Na	-9.22357
▁Form	-9.2239
▁itself	-9.22413
▁2000	-9.22428
▁something	-9.22526
ak	-9.22583
ium	-9.22601
▁less	-9.22709
men	-9.22839
▁least	-9.22857
▁ask	-9.23018
▁making	-9.23075
▁Ka	-9.23182
▁Ihren	-9.23205
▁Situation	-9.23223
о	-9.23285
▁product	-9.23308
▁möchten	-9.23361
▁Hilfe	-9.23441
▁among	-9.23466
▁individual	-9.23591
▁family	-9.23606
▁following	-9.23731
▁line	-9.23825
▁crisis	-9.23836
▁Richtlinie	-9.23909
▁Leben	-9.24048
▁EUR	-9.24274
▁management	-9.24287
ian	-9.24336
vo	-9.24356
▁range	-9.24445
▁name	-9.24466
▁away	-9.24546
so	-9.24593
▁regard	-9.24816
▁führen	-9.24839
▁directive	-9.24953
▁17	-9.24987
pa	-9.25094
▁fest	-9.25101
▁bitte	-9.25174
ien	-9.25331
mp	-9.2535
▁forward	-9.2541
ren	-9.25463
▁Ri	-9.25621
▁gentlemen	-9.25634
▁agree	-9.25792
▁Wasser	-9.25809
▁inter	-9.25945
▁Ort	-9.26005
▁Personen	-9.2601
mal	-9.2602
▁approach	-9.26453
▁San	-9.26465
▁unserem	-9.26487
▁him	-9.26582
▁fast	-9.26587
ies	-9.2665
▁Zusammenhang	-9.26681
▁Gemeinschaft	-9.26755
▁sea	-9.26789
▁2006	-9.26793
▁Region	-9.26993
▁until	-9.27001
▁stellt	-9.2714
&	-9.27316
▁2007	-9.27355
▁rules	-9.27462
ure	-9.27574
▁Preis	-9.27619
▁World	-9.277
▁politische	-9.2783
out	-9.27853
▁institutions	-9.2807
ba	-9.28126
ty	-9.2826
zeit	-9.28262
▁money	-9.2836
au	-9.28478
▁software	-9.28547
▁Haupt	-9.28615
▁going	-9.28616
▁Lösung	-9.28638
▁Du	-9.28638
hi	-9.28889
▁often	-9.28934
▁online	-9.29052
▁off	-9.29132
▁ideal	-9.29142
▁increase	-9.29205
art	-9.29224
▁Entschließung	-9.29259
▁little	-9.29294
tre	-9.29359
ungs	-9.29397
▁etc	-9.29496
▁le	-9.29513
▁light	-9.29657
▁hinaus	-9.29684
▁schnell	-9.2982
▁Ta	-9.30093
▁0	-9.30101
▁Spiel	-9.30108
|	-9.30119
á	-9.30149
▁Madam	-9.30278
▁Web	-9.3033
▁once	-9.30341
▁11	-9.30349
ial	-9.304
▁Con	-9.30969
▁State	-9.3108
▁kommt	-9.31086
tro	-9.31106
▁rather	-9.31122
son	-9.31199
▁beiden	-9.31222
▁jeder	-9.31287
▁framework	-9.313
▁include	-9.31397
▁activities	-9.31834
▁daran	-9.3189
▁towards	-9.31957
qui	-9.3196
▁st	-9.31977
▁Bank	-9.32047
politik	-9.32047
▁sicher	-9.32049
▁she	-9.32055
▁Wirtschaft	-9.3207
▁100	-9.32233
▁Kosten	-9.32284
▁Treaty	-9.32335
▁customers	-9.32338
om	-9.32362
▁Park	-9.32438
▁call	-9.32459
▁things	-9.3254
▁Ma	-9.3265
▁opportunity	-9.3266
▁Natur	-9.32827
ub	-9.32833
▁Car	-9.32856
▁o	-9.3294
▁growth	-9.33066
®	-9.33128
▁weniger	-9.3322
▁land	-9.33295
form	-9.33617
]	-9.33765
▁Deutschland	-9.33858
gel	-9.33864
▁resources	-9.33872
▁bzw	-9.33892
▁k	-9.3399
aus	-9.34043
▁favour	-9.34188
▁24	-9.34195
tal	-9.34218
▁value	-9.34364
▁aid	-9.34548
ise	-9.34602
▁Produkte	-9.34665
▁weit	-9.34672
▁key	-9.34854
▁etwa	-9.34883
▁Fraktion	-9.34909
▁unterstützt	-9.34918
▁Finanz	-9.34947
io	-9.35074
▁Präsidentin	-9.35101
▁Verbraucher	-9.35183
▁bringen	-9.35235
kt	-9.35297
▁field	-9.35367
ac	-9.35416
▁might	-9.35445
▁reason	-9.35449
▁town	-9.3546
▁gesagt	-9.3549
▁Mo	-9.35537
▁Me	-9.3555
ug	-9.35623
▁Pa	-9.35771
▁Sa	-9.35842
▁heart	-9.3588
▁nämlich	-9.35918
▁quite	-9.36043
▁International	-9.36078
▁13	-9.36202
▁solche	-9.36386
▁show	-9.36427
▁El	-9.36458
▁Berlin	-9.36486
▁gilt	-9.36591
▁gemacht	-9.36593
▁Punkt	-9.36667
▁Geld	-9.36689
▁indem	-9.36764
▁having	-9.3678
▁days	-9.36802
▁Durch	-9.36814
▁provided	-9.36879
▁Unsere	-9.36919
▁Deshalb	-9.36966
ating	-9.36969
▁Millionen	-9.3724
30	-9.37299
▁yet	-9.37333
ken	-9.37365
▁progress	-9.37477
8	-9.37503
▁gerade	-9.37608
▁gute	-9.37632
▁above	-9.37721
▁past	-9.37847
▁:	-9.3785
berg	-9.37919
▁September	-9.3793
▁l	-9.3808
▁ihm	-9.38107
▁beautiful	-9.38291
▁behalf	-9.38291
▁klar	-9.38425
▁economy	-9.38444
▁solution	-9.38543
▁bar	-9.3863
▁nehmen	-9.39003
▁After	-9.39018
▁technology	-9.39062
▁safety	-9.39139
▁Abstimmung	-9.39297
▁ladies	-9.39368
▁content	-9.39417
bi	-9.3943
▁text	-9.39548
The	-9.39623
▁interest	-9.39675
▁Anwendung	-9.39733
▁easy	-9.3975
ap	-9.39771
▁wirtschaftliche	-9.39842
▁meisten	-9.39854
▁left	-9.39881
▁unterschiedlich	-9.39906
▁members	-9.39941
▁application	-9.40085
mm	-9.40153
ben	-9.40323
▁sogar	-9.40435
ität	-9.40482
▁contact	-9.40484
▁Ko	-9.40713
▁Rechte	-9.4073
▁Vi	-9.40781
▁ihn	-9.40834
▁kind	-9.40857
▁del	-9.40896
les	-9.40962
▁handelt	-9.41007
▁Pi	-9.41083
ok	-9.41287
▁National	-9.41371
▁Projekt	-9.41399
▁art	-9.41436
▁post	-9.41438
▁Kultur	-9.41477
tra	-9.41483
▁seinem	-9.41623
▁Dieses	-9.41665
▁[	-9.41702
▁Hotels	-9.41745
▁verwendet	-9.41773
▁opinion	-9.41804
schaft	-9.41806
▁fully	-9.41812
▁costs	-9.41967
▁pay	-9.41988
▁allow	-9.4199
▁sei	-9.42019
▁darf	-9.42053
är	-9.42092
▁central	-9.42099
tel	-9.42176
auf	-9.42205
▁Qualität	-9.42239
▁dessen	-9.42272
▁Ent	-9.42391
▁let	-9.42502
▁gehen	-9.42548
▁Aussprache	-9.42562
▁amendments	-9.42628
▁deutlich	-9.4265
uch	-9.42775
▁Bezug	-9.42791
tic	-9.42819
▁Rates	-9.4295
▁deal	-9.4299
▁check	-9.43014
▁genau	-9.43074
▁minutes	-9.43085
▁fair	-9.4311
▁Ar	-9.43166
▁plan	-9.43173
▁adopted	-9.43214
▁website	-9.43307
▁Neu	-9.43344
▁Europas	-9.43423
▁Website	-9.43425
hr	-9.43493
▁cost	-9.43537
▁hard	-9.43619
▁policies	-9.43654
▁Restaurant	-9.43668
▁addition	-9.43826
fe	-9.43918
▁risk	-9.43952
heit	-9.43967
▁called	-9.44007
▁taking	-9.44134
▁proposals	-9.44141
ende	-9.44261
▁ebenfalls	-9.44301
▁darin	-9.44338
▁Bild	-9.44391
los	-9.44415
▁voll	-9.44454
▁legislation	-9.44462
▁Zugang	-9.44472
▁Wirtschafts	-9.44544
▁bekannt	-9.44572
▁One	-9.44699
▁2005	-9.44728
▁Bau	-9.44793
▁difficult	-9.44843
▁fundamental	-9.4495
▁standard	-9.45008
▁building	-9.45066
▁Entscheidung	-9.45178
".	-9.45284
▁vier	-9.4529
mon	-9.45308
▁complete	-9.45349
ell	-9.45454
▁step	-9.4549
▁Dank	-9.455
▁glaube	-9.45678
▁Di	-9.45752
zi	-9.45853
▁Industrie	-9.45936
▁due	-9.45962
ho	-9.45969
▁Gesellschaft	-9.4605
▁erreicht	-9.4611
▁importance	-9.46142
▁Dieser	-9.46154
haus	-9.46301
stand	-9.46376
▁attention	-9.4649
op	-9.46511
net	-9.4652
less	-9.46576
▁einigen	-9.46621
▁environmental	-9.46676
▁natural	-9.46794
▁projects	-9.4681
0	-9.46914
Berichterstatter	-9.46927
ors	-9.46997
▁My	-9.47015
▁concerned	-9.47089
▁öffentlichen	-9.47187
▁visit	-9.47247
▁bring	-9.47342
▁provides	-9.47792
▁besten	-9.47797
▁person	-9.47807
iv	-9.48049
nt	-9.481
▁responsibility	-9.48137
▁team	-9.48144
▁training	-9.48198
ß	-9.48238
▁2004	-9.48338
▁sollen	-9.48354
▁besser	-9.48368
mit	-9.48441
▁jeden	-9.48483
▁simply	-9.48516
▁brauchen	-9.48601
▁Demokratie	-9.48601
ative	-9.48601
▁near	-9.4861
▁Menschenrechte	-9.48614
▁UN	-9.4869
▁macht	-9.48696
▁TV	-9.48719
▁effective	-9.48776
▁Members	-9.48791
▁results	-9.48853
▁Wahl	-9.48861
ts	-9.4888
▁society	-9.48897
▁version	-9.49107
▁dürfen	-9.49152
▁Ne	-9.49181
▁Richtung	-9.49194
one	-9.49269
bo	-9.49357
▁Hand	-9.49564
▁success	-9.49569
▁known	-9.49579
ence	-9.49616
▁Sport	-9.49621
▁makes	-9.49621
▁g	-9.49659
▁strategy	-9.49663
▁achieve	-9.49663
▁accept	-9.497
▁add	-9.49792
▁feel	-9.49829
▁competition	-9.49876
▁h	-9.49964
sh	-9.50017
▁greater	-9.50019
▁weiterhin	-9.50317
iz	-9.50375
▁ihrem	-9.50508
▁user	-9.5064
▁technical	-9.50693
igkeit	-9.50704
vor	-9.50723
▁principle	-9.50729
▁dar	-9.50762
▁gehört	-9.50766
▁betrifft	-9.50866
▁Produkt	-9.50888
▁groups	-9.50931
▁required	-9.50967
▁young	-9.5097
▁professional	-9.50979
raum	-9.50987
▁Verantwortung	-9.50994
▁bedeutet	-9.51039
▁vi	-9.51089
wa	-9.51114
ür	-9.51142
▁reform	-9.51158
▁1.	-9.51304
▁Lu	-9.51311
▁consider	-9.51433
▁total	-9.51475
▁Wettbewerb	-9.51483
▁Ebene	-9.51527
▁receive	-9.51678
▁et	-9.51693
▁deshalb	-9.51734
50	-9.5177
▁breakfast	-9.51778
▁Umsetzung	-9.51871
▁internal	-9.51959
▁network	-9.51971
▁schaffen	-9.52193
▁gleich	-9.52212
ina	-9.52355
▁four	-9.52635
▁points	-9.52648
▁Po	-9.52681
▁authorities	-9.52789
▁keinen	-9.52802
▁regional	-9.52842
cht	-9.52923
sk	-9.53009
▁Minister	-9.5301
▁questions	-9.53095
gi	-9.53179
▁share	-9.53312
▁along	-9.53324
ag	-9.53415
▁nationalen	-9.53543
▁40	-9.53554
ard	-9.53557
▁road	-9.53636
▁words	-9.53657
Änderungsanträge	-9.53663
▁Rechts	-9.53744
▁gemeinsame	-9.53836
IT	-9.54072
▁Gebiet	-9.54143
▁meet	-9.54202
bereich	-9.54225
▁wichtige	-9.54231
▁anti	-9.54289
▁nature	-9.54416
",	-9.54475
▁live	-9.54537
▁side	-9.546
▁facilities	-9.54654
pe	-9.5467
ismus	-9.54686
▁Von	-9.54877
▁meeting	-9.54923
recht	-9.54962
▁serious	-9.54964
ot	-9.55073
▁read	-9.55132
▁Arbeits	-9.55164
▁Windows	-9.55172
line	-9.55271
▁cultural	-9.55356
▁clearly	-9.55548
▁ma	-9.55558
▁je	-9.55575
▁peace	-9.55625
▁erforderlich	-9.55634
▁erst	-9.55796
▁standards	-9.55797
sta	-9.5584
▁November	-9.56055
lichkeit	-9.5615
▁Ca	-9.56218
▁Reihe	-9.56239
▁keep	-9.56276
▁house	-9.56337
▁hoch	-9.56359
▁file	-9.56388
▁May	-9.56412
if	-9.56489
rat	-9.56547
▁capital	-9.56592
pf	-9.56595
▁address	-9.56625
▁employment	-9.56692
▁aufgrund	-9.56702
▁directly	-9.56733
▁via	-9.56745
ted	-9.56847
tin	-9.56931
ator	-9.5709
▁würden	-9.57106
▁Auto	-9.57197
schen	-9.5721
▁turn	-9.57328
▁understand	-9.57405
▁Text	-9.57459
▁event	-9.575
ert	-9.57502
▁Ansicht	-9.57589
ally	-9.57669
▁times	-9.57671
▁werde	-9.57682
ud	-9.57682
▁Ex	-9.57833
▁involved	-9.57842
▁months	-9.57899
ven	-9.57922
▁recent	-9.57965
▁strong	-9.58081
▁Nähe	-9.58166
▁Not	-9.58166
▁bereit	-9.58177
▁moment	-9.58193
▁essential	-9.58216
▁Interesse	-9.58218
▁2003	-9.58248
▁statt	-9.58338
▁April	-9.58451
20	-9.58457
▁Dr	-9.58505
▁responsible	-9.58545
▁Ja	-9.58547
▁See	-9.5859
▁findet	-9.58706
In	-9.5876
▁pages	-9.5877
▁Ziele	-9.58814
ip	-9.58828
е	-9.58874
▁Musik	-9.58913
▁enough	-9.58925
▁proposed	-9.58941
▁currently	-9.58992
▁u	-9.59014
▁others	-9.5936
ierte	-9.59407
je	-9.59416
▁nächsten	-9.59432
▁top	-9.59508
▁upon	-9.59575
▁parties	-9.59617
▁music	-9.5964
ful	-9.59662
▁zeigt	-9.59719
▁events	-9.59774
▁Grundlage	-9.59892
all	-9.59898
▁longer	-9.59918
▁000	-9.59988
▁force	-9.60038
▁developed	-9.60056
▁requirements	-9.60078
▁Geschichte	-9.60098
▁regions	-9.60378
▁Verfahren	-9.60586
▁Nicht	-9.60666
▁y	-9.60783
▁Bi	-9.60828
▁Bedingungen	-9.60893
▁travel	-9.61038
▁Vorschläge	-9.61046
▁Bevölkerung	-9.61049
▁Tatsache	-9.61049
▁guests	-9.61091
▁pool	-9.61133
mann	-9.61145
▁allerdings	-9.61145
▁freedom	-9.6122
▁Vertrag	-9.61291
▁foreign	-9.61291
▁run	-9.61357
▁arbeiten	-9.61406
▁23	-9.61418
▁Fa	-9.61449
▁history	-9.61536
ide	-9.61554
▁beispielsweise	-9.61625
10	-9.61643
▁From	-9.61684
fin	-9.61815
▁web	-9.6186
▁)	-9.61913
▁request	-9.61921
ow	-9.6193
▁democracy	-9.6206
▁stand	-9.62112
▁develop	-9.62161
▁efforts	-9.62187
▁Erfolg	-9.62211
▁themselves	-9.62253
ize	-9.62257
▁American	-9.62265
▁Ha	-9.62266
▁w	-9.62335
▁kleinen	-9.62398
▁station	-9.62425
▁Ihrem	-9.62497
▁notwendig	-9.62505
tion	-9.62518
▁culture	-9.62544
▁Sicherheits	-9.62554
▁wide	-9.62562
▁ago	-9.62608
▁improve	-9.62625
▁neu	-9.62721
▁ermöglicht	-9.62739
ale	-9.62899
▁views	-9.62943
tan	-9.63015
▁que	-9.63042
▁weiß	-9.63071
▁France	-9.63087
▁never	-9.63202
▁sure	-9.63324
▁needed	-9.63368
▁unique	-9.63394
▁Please	-9.63422
▁Vereinigte	-9.63424
▁führt	-9.63475
▁regulation	-9.63491
ring	-9.63506
▁reach	-9.63566
▁sprechen	-9.63609
dy	-9.63623
▁halten	-9.63634
▁comfortable	-9.63635
▁mind	-9.63655
▁solutions	-9.63677
▁language	-9.63745
▁implementation	-9.6384
▁Einsatz	-9.63892
▁hoffe	-9.63918
elle	-9.63935
▁lot	-9.63951
▁interests	-9.64041
▁Debatte	-9.64121
▁nutzen	-9.64204
▁Or	-9.64209
▁return	-9.64286
▁Jahres	-9.64302
▁mal	-9.64332
way	-9.64338
fi	-9.64386
▁Möglichkeiten	-9.64398
▁appropriate	-9.64556
▁Druck	-9.6456
▁Schritt	-9.64596
▁please	-9.64675
▁gemeinsamen	-9.647
▁voted	-9.64736
▁sozialen	-9.64789
▁Wert	-9.64847
▁War	-9.64925
▁effect	-9.64932
ction	-9.64984
▁send	-9.64984
▁Kon	-9.64994
▁computer	-9.65103
▁French	-9.65203
DE	-9.65246
▁€	-9.65339
▁beach	-9.65446
í	-9.65492
▁knowledge	-9.65502
▁restaurant	-9.65571
▁night	-9.65658
▁Israel	-9.65676
▁extremely	-9.65684
▁Paris	-9.65703
▁Nutzung	-9.65718
▁situated	-9.65759
▁Strategie	-9.65789
▁Verordnung	-9.65792
enden	-9.65807
ana	-9.65897
▁Hinblick	-9.65904
▁Gu	-9.65944
▁type	-9.65976
ding	-9.66004
Re	-9.66051
system	-9.66058
isation	-9.66121
ical	-9.66176
▁verfügt	-9.66256
▁education	-9.66284
9	-9.66363
▁ra	-9.6639
▁Liste	-9.66512
▁created	-9.66516
▁walk	-9.66574
▁frei	-9.66591
▁century	-9.66617
▁gleichzeitig	-9.6666
▁Design	-9.66807
hl	-9.66845
▁developing	-9.66859
▁everything	-9.66913
▁either	-9.67015
▁final	-9.67226
▁internationale	-9.67273
▁Inter	-9.67283
▁media	-9.67326
▁rest	-9.67354
▁negotiations	-9.6736
▁verschiedene	-9.67401
▁wenig	-9.67403
▁fünf	-9.67523
▁changes	-9.67525
ization	-9.67652
rs	-9.67682
▁vielleicht	-9.67781
ek	-9.67812
▁rate	-9.67827
▁weltweit	-9.67828
rd	-9.67841
▁though	-9.67861
schutz	-9.67863
▁additional	-9.67874
des	-9.67875
▁week	-9.67883
kommen	-9.67897
▁soon	-9.68074
▁Lo	-9.68085
ix	-9.68123
ite	-9.68176
▁el	-9.68209
mi	-9.6823
▁prices	-9.68448
▁Partner	-9.68539
red	-9.68548
▁t	-9.68593
▁climate	-9.68602
▁care	-9.68732
▁Daher	-9.68739
▁Geschäfts	-9.68743
▁clean	-9.68777
а	-9.68882
▁lange	-9.68892
▁‘	-9.68911
▁idea	-9.68927
ER	-9.68927
lu	-9.68951
▁By	-9.6899
▁Russia	-9.6901
▁entsprechend	-9.69053
▁stop	-9.69104
▁GmbH	-9.6912
▁choice	-9.6912
▁Herren	-9.69182
▁gestellt	-9.69197
spolitik	-9.69224
▁democratic	-9.69265
▁population	-9.69328
▁verbunden	-9.69338
▁Platz	-9.69408
▁according	-9.6941
▁Jo	-9.69428
▁Blick	-9.69437
J	-9.69556
▁direct	-9.69663
▁hohe	-9.69667
▁Su	-9.69806
▁true	-9.69858
▁schriftlich	-9.69903
ang	-9.69907
▁bleiben	-9.69942
▁face	-9.70055
ations	-9.70104
▁thus	-9.70285
▁al	-9.70443
mer	-9.70465
▁Handels	-9.70475
▁program	-9.70512
▁don	-9.70523
▁later	-9.7067
len	-9.70674
Mail	-9.70761
▁Damen	-9.70775
▁Rück	-9.70812
▁Änderungsantrag	-9.70849
▁Raum	-9.70956
▁original	-9.70959
▁AG	-9.71036
ges	-9.71063
ich	-9.71069
▁included	-9.7107
tor	-9.71074
▁gra	-9.71078
▁outside	-9.71097
▁Presidency	-9.71111
▁Ergebnis	-9.71145
▁Zentrum	-9.71165
▁almost	-9.71218
▁könnten	-9.71251
fer	-9.71256
▁ebenso	-9.71258
▁tatsächlich	-9.7127
▁How	-9.71288
mar	-9.71298
▁kleine	-9.71402
▁na	-9.71511
▁demand	-9.71526
lä	-9.71574
▁actually	-9.71578
▁date	-9.71651
▁hatten	-9.71712
▁cases	-9.71756
000	-9.71764
▁procedure	-9.71779
ica	-9.71792
▁comes	-9.71868
▁22	-9.71908
▁lack	-9.72081
▁Institutionen	-9.72188
▁Berg	-9.72324
▁context	-9.72337
bel	-9.72449
▁Erweiterung	-9.7245
▁wohl	-9.72523
▁states	-9.72548
mor	-9.72665
и	-9.72772
▁Interessen	-9.7279
we	-9.72827
▁Wort	-9.72846
▁Version	-9.72885
isierung	-9.72942
▁perfect	-9.72946
▁West	-9.72955
▁train	-9.73041
▁Regionen	-9.73071
▁Seit	-9.73103
Be	-9.73119
▁guarantee	-9.73155
▁traditional	-9.73194
▁Minuten	-9.7325
▁move	-9.73252
▁living	-9.73309
▁download	-9.73364
▁21	-9.73463
▁einzelnen	-9.73522
ru	-9.73525
▁Landes	-9.73538
▁performance	-9.73642
▁Mai	-9.73678
tz	-9.73683
▁pass	-9.7373
▁London	-9.73738
▁Auswirkungen	-9.73738
▁hours	-9.73789
▁center	-9.73827
▁Hu	-9.73828
▁designed	-9.7389
▁thing	-9.73896
▁Dialog	-9.73904
▁markets	-9.73955
▁Doch	-9.73975
▁funds	-9.73977
▁head	-9.7403
▁lead	-9.7407
iger	-9.74125
stein	-9.74165
▁Government	-9.74174
▁rund	-9.74205
▁Verbindung	-9.74234
fa	-9.74272
▁simple	-9.74338
▁Tri	-9.74339
▁throughout	-9.74377
▁workers	-9.74404
▁Bereichen	-9.74406
gu	-9.74457
▁Ausdruck	-9.74464
▁test	-9.74492
act	-9.74594
ign	-9.74645
▁Lebens	-9.74656
▁early	-9.74667
led	-9.74708
▁held	-9.74741
▁darum	-9.74766
▁space	-9.7483
▁famous	-9.7486
▁link	-9.74918
▁act	-9.7495
▁stage	-9.74994
za	-9.75082
▁big	-9.75129
▁Kolleginnen	-9.75162
▁gemeinsam	-9.75239
▁office	-9.75242
▁features	-9.75263
▁five	-9.7527
ized	-9.7532
▁po	-9.75398
▁model	-9.75445
▁entwickelt	-9.75465
▁neben	-9.755
▁gesamten	-9.75559
▁communication	-9.75603
ue	-9.75649
▁deine	-9.75677
▁liegen	-9.75707
ran	-9.75744
▁majority	-9.75752
markt	-9.75869
val	-9.75932
▁danken	-9.75932
▁guest	-9.76008
▁Ho	-9.76008
▁customer	-9.76054
▁denke	-9.7608
▁Ba	-9.76082
rt	-9.76102
sion	-9.76163
▁Programme	-9.76273
▁gegeben	-9.76309
▁Kunst	-9.7639
▁America	-9.76422
▁basic	-9.76439
▁Abgeordneten	-9.76458
mb	-9.7654
▁seen	-9.76548
▁angenommen	-9.7658
▁jede	-9.76596
for	-9.76601
▁investment	-9.76635
▁amount	-9.76647
▁tax	-9.767
▁Reise	-9.76827
keit	-9.76833
▁fa	-9.76843
▁später	-9.76878
weg	-9.76884
▁60	-9.76967
ish	-9.77036
log	-9.77063
ou	-9.77067
▁2002	-9.77075
▁front	-9.7712
tu	-9.77121
über	-9.77138
▁aim	-9.77157
isten	-9.77159
▁befinden	-9.7725
si	-9.77264
▁draft	-9.77278
tri	-9.77288
▁low	-9.77302
▁table	-9.77326
▁damage	-9.77335
▁remain	-9.77351
▁impact	-9.7739
▁Unser	-9.77421
pite	-9.7748
▁Prozess	-9.77509
▁setzen	-9.77565
▁bi	-9.77596
▁Angebot	-9.77665
▁heißt	-9.77672
▁Forschung	-9.77678
▁gab	-9.77697
▁game	-9.77738
▁Court	-9.77786
IS	-9.77855
▁hätte	-9.77997
▁benefit	-9.78003
▁Förderung	-9.78091
▁Haushalts	-9.78127
▁Turkey	-9.78183
ES	-9.78367
stellen	-9.78427
▁Meer	-9.7848
▁27	-9.78589
▁book	-9.78692
▁floor	-9.78752
▁jedem	-9.78816
▁significant	-9.78828
▁across	-9.78844
lin	-9.78889
▁looking	-9.78906
▁built	-9.78916
▁Verbesserung	-9.79081
burg	-9.79193
sektor	-9.792
▁Online	-9.7923
▁friendly	-9.79264
▁konnte	-9.79319
▁Außerdem	-9.79325
▁Gelegenheit	-9.79382
▁Japan	-9.79441
▁Kampf	-9.79441
▁August	-9.79497
▁mehrere	-9.79514
▁writing	-9.79555
▁Verhandlungen	-9.79555
ised	-9.79556
▁Zum	-9.79556
▁fight	-9.79556
▁eigentlich	-9.79671
tes	-9.79681
ual	-9.79682
▁connection	-9.79707
sp	-9.79729
▁certainly	-9.79746
▁internet	-9.79847
▁Go	-9.79859
▁ever	-9.79897
▁Beitrag	-9.79972
▁community	-9.80022
▁euro	-9.80068
▁heraus	-9.80102
▁half	-9.80136
▁Team	-9.8016
▁Benutzer	-9.80191
▁exchange	-9.80191
▁prevent	-9.80203
▁lo	-9.80274
▁Ru	-9.80292
lle	-9.80327
▁Themen	-9.80335
▁Selbst	-9.80368
war	-9.80383
▁Cor	-9.80397
AR	-9.80478
▁double	-9.80479
dem	-9.80522
▁South	-9.80525
führung	-9.80528
▁holiday	-9.80628
▁relevant	-9.80637
▁committee	-9.80701
▁Personal	-9.80709
cher	-9.80795
▁direction	-9.80856
▁member	-9.80868
▁Informations	-9.80889
see	-9.80941
▁Abkommen	-9.80946
▁equipment	-9.8095
▁Beziehungen	-9.81012
▁Reform	-9.81054
▁doing	-9.811
▁En	-9.81154
▁took	-9.81229
▁Antwort	-9.81421
▁Mitglieder	-9.81426
time	-9.81453
ino	-9.81462
▁completely	-9.81493
gehen	-9.81524
port	-9.81537
sche	-9.81728
ku	-9.81763
▁2001	-9.81791
▁links	-9.81798
▁Ausschusses	-9.81804
▁Information	-9.8195
▁Let	-9.821
▁users	-9.82156
▁Herausforderung	-9.8218
▁com	-9.82305
▁helfen	-9.82341
▁search	-9.82365
▁existing	-9.82471
▁v	-9.82519
▁decisions	-9.82525
▁Russland	-9.82536
term	-9.82548
▁weiteren	-9.82592
jo	-9.82621
▁geführt	-9.8269
▁promote	-9.82705
▁package	-9.82746
▁relations	-9.82747
▁soziale	-9.82749
▁Her	-9.82782
del	-9.82791
▁related	-9.8281
▁objective	-9.8281
▁Des	-9.82838
▁Tat	-9.82925
▁Familien	-9.83013
▁objectives	-9.83042
hin	-9.8308
▁1999	-9.83134
▁nothing	-9.83195
▁regarding	-9.8326
▁Aufgabe	-9.83269
ability	-9.83293
▁English	-9.83318
An	-9.83343
▁practice	-9.83412
▁material	-9.83467
▁behind	-9.83596
▁alternative	-9.83609
▁card	-9.83657
▁entire	-9.83698
▁Transport	-9.83732
▁Kontrolle	-9.83767
ile	-9.83894
▁includes	-9.83911
kon	-9.83967
▁concerns	-9.84011
po	-9.84018
▁äußerst	-9.8403
▁Spa	-9.84048
▁aware	-9.84175
platz	-9.84195
geben	-9.84199
▁although	-9.84211
▁Pre	-9.84224
let	-9.84321
▁mentioned	-9.84349
▁concerning	-9.84447
▁Gesundheit	-9.84452
▁Macht	-9.84505
▁bus	-9.84517
▁drive	-9.84562
▁credit	-9.84567
▁Ad	-9.84569
▁Ausschuss	-9.84601
▁200	-9.84651
▁leave	-9.84761
▁movement	-9.84763
mail	-9.84774
▁völlig	-9.84816
▁Test	-9.84866
▁function	-9.84932
▁body	-9.84986
▁programmes	-9.85099
▁Y	-9.85122
▁apply	-9.85139
ities	-9.85191
▁Since	-9.85242
▁East	-9.85268
▁document	-9.85279
▁innovative	-9.85279
halt	-9.85306
▁concern	-9.85335
▁Steuer	-9.85377
▁rule	-9.85383
▁Erfahrung	-9.85406
▁Fehler	-9.8541
▁warm	-9.85417
▁reasons	-9.85473
▁gestimmt	-9.85495
▁CD	-9.85505
▁size	-9.85508
vent	-9.85621
▁sense	-9.85635
▁takes	-9.85656
▁mean	-9.85707
ov	-9.85716
▁jobs	-9.85776
▁Pe	-9.85798
▁try	-9.8585
▁avoid	-9.85915
of	-9.85954
▁nice	-9.85964
▁response	-9.85976
▁enthalten	-9.86028
▁Türkei	-9.86037
▁Here	-9.86075
▁ten	-9.8611
gt	-9.86162
▁leading	-9.86184
▁complex	-9.86201
▁Je	-9.8621
▁reduce	-9.86221
Ma	-9.86248
▁meinen	-9.86446
kl	-9.86456
▁answer	-9.86522
pl	-9.86612
▁Standard	-9.86628
▁richtig	-9.86628
▁potential	-9.86645
▁term	-9.86746
▁pi	-9.86754
▁quickly	-9.86757
▁Gäste	-9.86814
▁agricultural	-9.86839
▁allows	-9.86867
▁treatment	-9.869
▁tell	-9.86965
▁Konferenz	-9.87002
▁Mitarbeiter	-9.87007
▁zweiten	-9.87018
▁airport	-9.87098
▁Ni	-9.87099
od	-9.87199
▁ganze	-9.87199
▁Frankreich	-9.87213
▁wichtigen	-9.87222
▁received	-9.87229
▁job	-9.87239
▁safe	-9.87257
cu	-9.87296
▁focus	-9.87318
fall	-9.87375
▁digital	-9.87403
gabe	-9.87481
▁agreements	-9.87484
wi	-9.87525
▁partners	-9.87595
▁Strand	-9.87604
weise	-9.87618
▁Produktion	-9.87625
▁Notwendigkeit	-9.87648
▁image	-9.87674
▁Per	-9.87694
▁follow	-9.87736
gleich	-9.87827
by	-9.87882
gang	-9.87905
org	-9.87961
▁mo	-9.87991
▁leben	-9.88038
ny	-9.88087
▁jedes	-9.88138
▁bekommen	-9.88169
ible	-9.88175
▁Barcelona	-9.88211
▁gerne	-9.88328
pt	-9.88341
ps	-9.88348
▁begin	-9.88359
▁Club	-9.88388
▁ex	-9.88402
▁Bitte	-9.8856
our	-9.88598
▁wobei	-9.88605
▁Funktion	-9.88617
▁Lisbon	-9.88652
▁age	-9.88667
▁Mitglied	-9.88689
▁Aufenthalt	-9.88715
▁Lissabon	-9.88715
▁party	-9.88749
▁Film	-9.88827
▁Fischerei	-9.88844
▁Ergebnisse	-9.89083
▁keyword	-9.8916
ierten	-9.89184
▁beginning	-9.89228
▁wichtigsten	-9.8932
ör	-9.89331
▁Iran	-9.89335
▁style	-9.89346
▁bleibt	-9.89348
▁separate	-9.89352
bt	-9.89356
amp	-9.89367
▁self	-9.89371
▁Zeitpunkt	-9.89379
innen	-9.89431
▁indeed	-9.89439
▁values	-9.89439
▁comp	-9.8947
greifen	-9.89494
▁established	-9.89548
▁II	-9.89552
RE	-9.89575
▁six	-9.89588
▁huge	-9.89687
▁Computer	-9.89794
▁Can	-9.89797
vis	-9.8982
▁contains	-9.8984
▁Insel	-9.89847
ph	-9.89858
▁military	-9.89923
lage	-9.89942
▁speak	-9.90036
▁gehören	-9.90061
▁Gewalt	-9.90119
ki	-9.90128
▁parts	-9.90167
▁accommodation	-9.90177
▁below	-9.90183
▁Standpunkt	-9.90204
▁Museum	-9.90319
serv	-9.90456
▁bed	-9.90555
▁lässt	-9.90574
▁Central	-9.90628
▁Auswahl	-9.90638
▁Krise	-9.90709
▁Damit	-9.90781
▁Plan	-9.90784
▁express	-9.90875
▁sa	-9.9107
▁oil	-9.91096
▁extra	-9.91122
▁ermöglichen	-9.91143
▁dialogue	-9.91144
▁Jahrhundert	-9.91157
▁bestehen	-9.9116
''	-9.91182
▁Groß	-9.91201
▁Article	-9.91207
▁enthält	-9.91214
▁hinter	-9.91214
▁Verwendung	-9.91216
▁sp	-9.91294
EL	-9.91334
bre	-9.91337
side	-9.91428
cia	-9.91434
pos	-9.91492
▁Gruppe	-9.91496
▁bevor	-9.91497
arbeit	-9.91501
▁City	-9.91582
▁gar	-9.91742
▁Anfang	-9.91804
▁para	-9.91829
fo	-9.91834
▁Affairs	-9.91856
▁hinsichtlich	-9.91856
▁industrial	-9.91856
▁hold	-9.91903
▁sound	-9.91905
▁wegen	-9.9197
▁Behörden	-9.92015
▁Management	-9.92045
▁Schaffung	-9.92052
▁Beschäftigung	-9.92102
▁Some	-9.92164
▁Bad	-9.92239
▁popular	-9.92314
▁einzige	-9.92376
▁Inhalt	-9.92432
▁PC	-9.92468
▁block	-9.92509
▁achieved	-9.92534
▁Star	-9.92537
▁spielen	-9.9256
verständlich	-9.92598
rn	-9.92648
▁expect	-9.92652
▁gesamte	-9.9273
▁amendment	-9.92753
▁video	-9.92871
▁equipped	-9.92923
▁cha	-9.92958
▁Sp	-9.93011
▁mobile	-9.93045
werk	-9.93105
▁applications	-9.93191
ition	-9.93229
▁Tra	-9.93345
▁+	-9.93356
▁conference	-9.93369
▁Organisation	-9.93505
▁works	-9.93507
▁Gemeinschafts	-9.93617
▁Port	-9.93617
▁commitment	-9.93631
▁active	-9.9369
▁June	-9.93729
programm	-9.93764
ff	-9.93766
▁größere	-9.93771
▁creation	-9.93779
tag	-9.93785
▁protect	-9.93832
▁Person	-9.93833
▁transfer	-9.93874
▁increased	-9.9392
▁considered	-9.94038
▁Sozial	-9.94049
▁ne	-9.9405
▁General	-9.94117
plan	-9.94151
▁supply	-9.94162
eu	-9.94349
▁Höhe	-9.94366
▁Wi	-9.94367
▁Of	-9.94438
▁Lösungen	-9.94447
▁Juli	-9.94456
▁bisher	-9.94463
▁presented	-9.94579
ries	-9.9458
hol	-9.94638
press	-9.94671
▁bathroom	-9.94833
▁zahlreiche	-9.94848
pp	-9.94886
▁pressure	-9.94907
▁produce	-9.94922
zer	-9.94956
gg	-9.94963
▁multi	-9.95027
▁zeigen	-9.95033
zo	-9.95062
▁Post	-9.95095
▁initiative	-9.95098
▁Amsterdam	-9.95167
▁Villa	-9.9518
▁stark	-9.95191
▁recently	-9.95238
pi	-9.95272
▁park	-9.95276
▁Meine	-9.95283
ON	-9.95307
ó	-9.95315
zug	-9.95359
ade	-9.95379
▁Finally	-9.9539
▁derzeit	-9.95394
hn	-9.95415
▁gas	-9.95415
pri	-9.95475
▁independent	-9.95507
▁highly	-9.95533
▁consumers	-9.95563
ischer	-9.95584
▁leicht	-9.95667
▁files	-9.95833
▁integration	-9.95852
▁spa	-9.95858
St	-9.95888
▁High	-9.95936
▁Vertrags	-9.95938
van	-9.95958
▁Video	-9.95994
▁verfügen	-9.96061
ker	-9.96077
▁Umgebung	-9.96107
▁concept	-9.96119
use	-9.96144
▁Darüber	-9.96185
ning	-9.96216
▁Si	-9.96247
▁everyone	-9.96343
▁successful	-9.96369
▁Such	-9.96431
▁verwenden	-9.96432
▁Therefore	-9.96454
▁eigene	-9.96463
▁Handel	-9.96505
▁code	-9.96531
▁nor	-9.96565
▁choose	-9.96591
▁commercial	-9.96652
▁nuclear	-9.96659
▁Position	-9.96673
▁zweite	-9.96739
▁board	-9.96741
▁geschlossen	-9.96741
▁ha	-9.96763
▁Now	-9.96763
tain	-9.96776
hof	-9.96793
▁nie	-9.96796
stellung	-9.96829
ib	-9.96843
▁carried	-9.96864
▁su	-9.96887
du	-9.96905
▁seems	-9.96987
▁Landwirtschaft	-9.97003
AL	-9.97083
▁unseres	-9.97104
▁Gebäude	-9.97138
elt	-9.9714
mittel	-9.97145
▁joint	-9.97147
▁verbessern	-9.97207
▁bestimmte	-9.97221
▁Zahl	-9.9724
▁men	-9.97251
Ver	-9.973
▁allein	-9.97358
▁Sommer	-9.97362
▁Wa	-9.97381
▁Server	-9.97397
▁Woche	-9.97495
▁Mi	-9.97545
▁cross	-9.97621
▁late	-9.97638
IN	-9.97721
▁Convention	-9.97764
▁Val	-9.978
▁Air	-9.97819
▁großer	-9.97827
▁Tage	-9.97861
▁governments	-9.97924
▁Republic	-9.97972
▁came	-9.97987
▁Integration	-9.98035
▁Anzahl	-9.98151
▁former	-9.98217
▁base	-9.98307
▁Küche	-9.98313
▁coming	-9.98332
▁Business	-9.98338
▁Ku	-9.9839
▁ganzen	-9.98457
▁guten	-9.9846
▁ange	-9.98519
▁enable	-9.98548
▁First	-9.98565
▁Dabei	-9.98604
▁Red	-9.98618
▁easily	-9.9873
▁series	-9.98752
▁higher	-9.98766
trag	-9.98781
▁besondere	-9.98782
▁principles	-9.98882
▁Juni	-9.98902
▁structure	-9.99024
▁reviews	-9.99043
▁gebracht	-9.99274
▁Preise	-9.99297
cal	-9.99324
Sch	-9.99347
▁neuer	-9.99361
▁trans	-9.99436
▁agreed	-9.99468
▁York	-9.995
tur	-9.99544
industrie	-9.99557
▁atmosphere	-9.99571
▁Finanzierung	-9.99603
▁Präsidentschaft	-9.99664
▁doubt	-9.99782
▁Haushalt	-9.99787
▁billion	-9.99798
11	-9.9983
▁meinem	-9.99852
▁auszu	-9.99887
az	-9.99955
▁sagte	-9.99958
▁häufig	-9.99994
▁Initiative	-10.0007
▁Debian	-10.0007
ship	-10.0013
▁possibility	-10.0014
ions	-10.0015
▁Änderung	-10.0019
▁perhaps	-10.0021
▁similar	-10.0021
▁Änderungen	-10.0023
▁IT	-10.0026
▁zunächst	-10.0028
▁prepared	-10.0029
▁host	-10.0029
▁Herzen	-10.0031
▁shown	-10.0032
▁ausgestattet	-10.0033
▁mein	-10.0035
hm	-10.0036
ay	-10.0037
▁cause	-10.0038
ün	-10.0043
▁Kontakt	-10.0047
▁entwickeln	-10.0049
▁fördern	-10.0049
▁civil	-10.0051
▁schwer	-10.0052
▁Diskussion	-10.0054
▁death	-10.0055
▁sorgen	-10.0056
▁latest	-10.0056
▁Buch	-10.0063
▁gelegen	-10.0066
▁Einführung	-10.0068
▁verstehen	-10.0068
rück	-10.0069
▁shows	-10.0071
▁Staats	-10.0074
res	-10.0077
▁external	-10.0077
▁pa	-10.008
▁Währung	-10.0084
▁Mehrheit	-10.0092
▁bo	-10.0112
▁levels	-10.0118
ified	-10.012
▁nahe	-10.0122
har	-10.0125
▁automatisch	-10.0128
ick	-10.0129
▁consumer	-10.0132
▁abge	-10.0134
▁tourist	-10.0136
▁Familie	-10.0137
▁North	-10.0138
▁ti	-10.0142
▁offen	-10.0142
▁Spain	-10.0143
▁Sprache	-10.0148
▁erfolgt	-10.015
▁property	-10.0157
▁gleichen	-10.0159
▁Party	-10.0161
halten	-10.0164
▁word	-10.0165
▁aspects	-10.018
▁server	-10.0183
▁setting	-10.0184
▁sustainable	-10.0185
wo	-10.0189
▁*	-10.0189
▁closed	-10.019
▁rates	-10.0192
satz	-10.0196
▁normal	-10.0199
US	-10.0202
hen	-10.0205
handel	-10.0207
▁Verfassung	-10.0215
druck	-10.0217
▁asked	-10.0218
▁Fach	-10.0224
▁größte	-10.0224
▁Wer	-10.0226
▁500	-10.0228
▁Folgen	-10.023
▁balance	-10.0231
▁Neben	-10.0237
15	-10.0238
▁decided	-10.0242
▁kurz	-10.0246
▁Regierungen	-10.0249
▁priority	-10.0251
▁anderer	-10.0252
▁enter	-10.0252
die	-10.0254
▁pe	-10.0259
▁press	-10.0259
▁review	-10.0269
▁gewährleisten	-10.0271
▁Kraft	-10.0277
▁somit	-10.0278
▁Freiheit	-10.0279
▁reached	-10.0284
▁effects	-10.0286
▁reference	-10.0288
tik	-10.0297
▁Dur	-10.03
nes	-10.0305
▁eindeutig	-10.0308
star	-10.0315
tum	-10.0316
▁March	-10.0319
▁distance	-10.033
ulation	-10.0333
ya	-10.0337
▁sport	-10.0338
ces	-10.034
▁matters	-10.0342
▁previous	-10.0357
▁hohen	-10.0361
▁goods	-10.0363
▁durchgeführt	-10.0369
▁entsprechende	-10.038
▁opportunities	-10.0381
▁added	-10.0383
▁increasing	-10.0386
▁providing	-10.0388
▁CO	-10.0392
gar	-10.0393
▁speed	-10.0393
▁ski	-10.0396
hu	-10.04
▁December	-10.041
rä	-10.0415
nde	-10.0417
▁Te	-10.0423
▁compromise	-10.0425
▁legislative	-10.0433
▁discussion	-10.0434
▁thought	-10.0436
▁method	-10.0436
▁Italy	-10.044
ice	-10.045
▁lediglich	-10.0455
TM	-10.0456
▁Fortschritte	-10.0458
▁details	-10.0459
ill	-10.0466
sicherheit	-10.0466
▁80	-10.0467
12	-10.0468
▁summer	-10.047
Dienstleistungen	-10.0475
▁Lebensmittel	-10.0489
▁si	-10.049
leben	-10.0491
▁Bekämpfung	-10.0492
▁island	-10.0501
▁Mon	-10.0502
▁2.	-10.0504
▁Kosovo	-10.0507
▁www	-10.0509
▁à	-10.051
▁300	-10.0511
nahme	-10.0512
▁Technologie	-10.0526
▁capacity	-10.0529
▁Start	-10.054
▁draw	-10.0544
▁Gruppen	-10.0545
äng	-10.0545
ini	-10.0548
▁Free	-10.0549
AT	-10.0551
eb	-10.056
▁materials	-10.0562
▁charge	-10.0563
▁reports	-10.0564
▁Italien	-10.0565
▁erwähnt	-10.0566
▁28	-10.0568
▁Pu	-10.0568
cken	-10.0573
▁threat	-10.0573
▁Innovation	-10.0574
▁Punkte	-10.0574
02	-10.0575
▁Nur	-10.0578
▁erneut	-10.0581
▁tra	-10.0587
▁Italian	-10.0589
▁obwohl	-10.0589
igt	-10.059
▁Behandlung	-10.0598
▁quiet	-10.0598
▁Erachtens	-10.0604
▁gl	-10.0605
▁Africa	-10.0607
tage	-10.0613
▁partner	-10.0614
cing	-10.0616
sverfahren	-10.0624
▁Golf	-10.0626
ere	-10.063
▁funding	-10.0634
▁ground	-10.064
▁Medien	-10.0642
poli	-10.0644
ient	-10.0648
▁Während	-10.0649
▁She	-10.0652
▁Gesamt	-10.0656
▁Wein	-10.066
lauf	-10.0672
▁Konzept	-10.0679
▁brought	-10.0679
▁Aktivitäten	-10.0686
▁influence	-10.0687
▁transparent	-10.0687
▁Urlaub	-10.0692
▁Site	-10.0692
▁Kommissarin	-10.0693
PL	-10.0694
▁construction	-10.0695
ral	-10.0696
▁tragen	-10.0697
▁message	-10.0699
▁flexible	-10.0702
ising	-10.0709
▁erster	-10.071
▁Fi	-10.0711
legen	-10.0713
▁26	-10.072
▁submitted	-10.0725
▁enlargement	-10.0732
▁Frühstück	-10.0736
buch	-10.0736
▁apartment	-10.0738
▁reduction	-10.0748
▁illegal	-10.0751
spiel	-10.0752
▁poor	-10.0752
▁Stunden	-10.0755
▁assistance	-10.0756
▁Frei	-10.0759
▁Dinge	-10.076
▁contract	-10.0762
▁labour	-10.0762
▁scheint	-10.0763
▁eingesetzt	-10.0765
gr	-10.0765
/200	-10.0767
last	-10.0769
stelle	-10.0772
rk	-10.0777
▁Qu	-10.0781
▁solchen	-10.0785
▁Dezember	-10.0785
▁ho	-10.0786
▁Einzel	-10.0786
▁ständig	-10.0786
▁thanks	-10.0787
▁sites	-10.0788
▁Ju	-10.079
▁study	-10.0793
▁Sta	-10.0806
▁Western	-10.0807
hotel	-10.0809
▁ad	-10.081
inter	-10.0811
▁rich	-10.082
FR	-10.082
ano	-10.0826
qu	-10.083
▁Mag	-10.0837
▁Anti	-10.0842
pass	-10.0846
▁stability	-10.085
wie	-10.0855
unternehmen	-10.0862
▁purpose	-10.0863
▁Ob	-10.087
▁Bas	-10.0872
▁Booking	-10.0874
▁largest	-10.0875
▁love	-10.0875
acht	-10.0879
40	-10.0888
▁aufgenommen	-10.0889
▁pleased	-10.0891
▁remains	-10.0896
einander	-10.0899
▁restaurants	-10.09
▁tool	-10.09
sam	-10.0901
▁Flughafen	-10.0909
▁secure	-10.091
tet	-10.0915
▁Grand	-10.0918
cy	-10.0919
▁außerdem	-10.0924
sfähigkeit	-10.0925
▁child	-10.0929
▁Open	-10.0932
▁rein	-10.094
▁implement	-10.0948
▁versuchen	-10.095
▁Unternehmens	-10.095
▁Basis	-10.0952
▁historical	-10.0953
▁Bra	-10.0954
▁variety	-10.0963
▁bestimmten	-10.0965
▁Gefahr	-10.0969
▁January	-10.0972
▁mini	-10.0976
▁Ukraine	-10.0978
▁Auffassung	-10.0979
▁Cha	-10.0986
ika	-10.0988
▁relation	-10.0991
▁app	-10.0991
wissenschaftlich	-10.0995
▁instead	-10.1002
▁einschließlich	-10.1003
▁Wachstum	-10.1006
▁regulations	-10.1015
▁broad	-10.1017
▁medium	-10.1017
▁Fund	-10.1018
▁export	-10.1024
▁Bildung	-10.1027
Q	-10.1029
▁Ski	-10.1031
▁started	-10.1032
▁limited	-10.1034
▁Den	-10.1034
▁versucht	-10.1035
▁Projekte	-10.1036
▁gives	-10.1045
schau	-10.1047
+	-10.1047
nis	-10.1049
▁creating	-10.1049
▁relationship	-10.1049
▁dadurch	-10.1052
fahrt	-10.1052
▁contribution	-10.1053
ably	-10.1058
▁fun	-10.1058
▁Vertrauen	-10.1065
▁round	-10.1066
▁mention	-10.1071
▁October	-10.1072
▁village	-10.1074
▁actions	-10.1086
▁correct	-10.1088
▁meines	-10.1092
▁Stelle	-10.1093
▁Erklärung	-10.1095
▁Bestimmungen	-10.1099
▁$	-10.1107
▁British	-10.1112
▁Opfer	-10.1114
▁Wo	-10.1117
▁Klima	-10.1119
▁bit	-10.112
▁Luft	-10.1123
lan	-10.1127
set	-10.1127
▁became	-10.1127
▁task	-10.1135
▁insgesamt	-10.1136
hilfe	-10.1137
zy	-10.1143
kosten	-10.1144
▁Verkehrs	-10.1147
ware	-10.1147
ort	-10.115
▁Instrument	-10.1151
▁Krieg	-10.1154
rad	-10.1155
bit	-10.1157
▁WTO	-10.116
▁ausge	-10.1162
ult	-10.1163
▁item	-10.1167
lon	-10.1168
▁interesting	-10.1168
▁vollständig	-10.1169
ah	-10.1171
barkeit	-10.1175
▁violence	-10.1183
▁innovation	-10.1183
▁Also	-10.1186
▁allowed	-10.1187
ast	-10.1192
TA	-10.1196
weit	-10.1197
▁Bus	-10.1199
duc	-10.12
AN	-10.1205
▁setzt	-10.1206
▁Today	-10.1209
▁Rights	-10.1209
Fraktion	-10.121
ments	-10.1216
bare	-10.1223
RI	-10.1228
▁1998	-10.1233
▁Zur	-10.1239
▁film	-10.124
▁require	-10.1242
▁''	-10.1242
▁Nord	-10.1245
RA	-10.1245
▁Com	-10.1252
▁mountain	-10.1253
▁Portugal	-10.1255
▁written	-10.1255
▁supported	-10.1255
are	-10.1258
pen	-10.1259
position	-10.1266
Die	-10.1269
▁Aufmerksamkeit	-10.1271
▁Development	-10.1271
▁class	-10.1273
technik	-10.128
▁operation	-10.1282
rate	-10.1283
▁release	-10.1284
▁schließlich	-10.1287
▁erfolgreich	-10.129
▁3.	-10.1295
selben	-10.1302
▁option	-10.1309
▁forms	-10.1312
▁folgt	-10.1313
▁treffen	-10.1314
▁school	-10.1316
▁instrument	-10.1316
deck	-10.1316
▁red	-10.1318
▁flow	-10.1319
▁Klein	-10.1319
ld	-10.1327
▁comfort	-10.1332
▁Tre	-10.1334
king	-10.1334
▁Spanish	-10.1335
▁mag	-10.1338
ktion	-10.1339
▁got	-10.134
▁documents	-10.1349
▁Arbeitnehmer	-10.135
▁verbessert	-10.1351
▁giving	-10.1352
tten	-10.1352
sehen	-10.1353
▁path	-10.1355
anz	-10.1356
▁sun	-10.1357
▁effort	-10.1362
▁produced	-10.1366
▁Vorschriften	-10.1368
▁port	-10.1368
..."	-10.1369
▁Q	-10.1372
▁Flug	-10.1372
ans	-10.1372
ai	-10.1375
▁Ga	-10.1377
reg	-10.1379
gestellt	-10.138
▁par	-10.1382
▁morgen	-10.1384
▁build	-10.1388
▁Sicht	-10.1389
▁erzielt	-10.1392
preis	-10.1395
▁chance	-10.1401
▁Oktober	-10.1408
▁sechs	-10.1409
▁Werte	-10.1413
▁distribution	-10.1416
▁statement	-10.1419
▁fishing	-10.1421
▁status	-10.1422
▁University	-10.1441
heim	-10.1443
▁met	-10.1444
enz	-10.1447
▁maintain	-10.1449
▁Anforderungen	-10.1457
▁offering	-10.1462
19	-10.1465
ving	-10.1466
▁steps	-10.1467
▁source	-10.1471
hold	-10.1475
▁Entscheidungen	-10.1477
▁exist	-10.1477
par	-10.1478
▁suggest	-10.1485
ox	-10.1485
▁vertreten	-10.1491
▁Centre	-10.1492
eur	-10.1496
▁Bereiche	-10.1503
pre	-10.1504
tisch	-10.1508
▁Beitritt	-10.1513
▁click	-10.1513
ngesichts	-10.1514
▁DVD	-10.1514
▁vergangenen	-10.1515
arbeiten	-10.1516
▁kon	-10.1517
feld	-10.1519
▁eingerichtet	-10.1519
lf	-10.1522
▁genießen	-10.1523
lar	-10.1536
▁conflict	-10.1537
▁Sinne	-10.154
welt	-10.1543
▁Sitzung	-10.1546
▁equal	-10.1546
▁Tour	-10.1547
▁behandelt	-10.1548
▁activity	-10.1548
str	-10.1551
ress	-10.1553
▁Folge	-10.156
▁ändern	-10.1561
lt	-10.1564
▁März	-10.1564
ado	-10.1568
▁provisions	-10.1571
teil	-10.1574
▁öffentliche	-10.1578
ständig	-10.1579
▁Firma	-10.158
ath	-10.1582
▁nichts	-10.1583
▁sofort	-10.1583
▁gemäß	-10.1584
▁wine	-10.1587
Gästebewertungen	-10.1589
▁agenda	-10.1591
ys	-10.1595
▁color	-10.1599
ria	-10.1604
durch	-10.1604
▁places	-10.1605
▁Gründen	-10.1607
punkt	-10.1608
▁Schw	-10.161
▁Investitionen	-10.1614
▁Binnenmarkt	-10.1614
▁efficient	-10.1615
mat	-10.1616
▁note	-10.1616
ble	-10.1617
▁wichtiger	-10.1617
▁europäischer	-10.1624
ada	-10.1624
pon	-10.1629
▁benötigen	-10.163
▁Grenzen	-10.1638
oc	-10.1638
ender	-10.1646
oli	-10.1652
tas	-10.1653
▁Gra	-10.1655
sel	-10.1658
▁konnten	-10.1665
▁Bru	-10.1669
▁finally	-10.1671
▁helpful	-10.1676
▁van	-10.1677
▁ourselves	-10.168
▁Fu	-10.1683
gl	-10.1683
off	-10.1687
▁Stabilität	-10.1689
▁dringend	-10.1689
▁Tagesordnung	-10.1689
▁leider	-10.1697
▁Ansatz	-10.1701
▁erfahren	-10.1711
▁hotels	-10.1711
ple	-10.1714
based	-10.172
▁Januar	-10.1721
▁recht	-10.1721
▁Entwicklungs	-10.1722
▁useful	-10.1732
▁Motor	-10.1734
▁End	-10.1736
▁los	-10.1737
▁nächste	-10.174
▁July	-10.1741
▁elegant	-10.1744
▁Beginn	-10.1747
▁halte	-10.1754
▁leisten	-10.1757
▁Heute	-10.1757
▁vital	-10.1758
▁Anfrage	-10.1759
▁alten	-10.176
▁einzu	-10.1763
fen	-10.1764
▁establish	-10.1769
▁plant	-10.1769
▁Har	-10.177
▁Transparenz	-10.1773
▁beyond	-10.1773
▁limit	-10.1775
▁Nacht	-10.1776
ez	-10.1779
▁ba	-10.178
▁procedures	-10.1784
ins	-10.1786
▁regards	-10.1788
▁moderne	-10.1791
▁parking	-10.1795
▁mark	-10.1796
▁phone	-10.1799
▁machine	-10.18
▁seek	-10.1804
▁star	-10.181
▁aktuellen	-10.1811
▁Hoch	-10.1814
▁größten	-10.1815
▁Leute	-10.1816
Office	-10.1817
▁origin	-10.1819
▁70	-10.182
▁goes	-10.182
lic	-10.1823
▁Services	-10.1825
▁elements	-10.1826
▁Sektor	-10.1831
▁erwarten	-10.1832
▁Spieler	-10.1838
▁r	-10.1839
▁kannst	-10.184
▁zehn	-10.184
▁Human	-10.1843
▁Frieden	-10.1847
▁applied	-10.1849
bild	-10.1851
ruf	-10.1859
▁menu	-10.186
bus	-10.1861
▁email	-10.1862
▁encourage	-10.1873
ski	-10.1873
▁bezüglich	-10.1873
▁Forschungs	-10.1874
▁Republik	-10.1874
▁criteria	-10.1874
▁vergessen	-10.1874
verkehr	-10.1876
▁Sea	-10.1878
▁Protokoll	-10.1892
▁learn	-10.1892
kraft	-10.1895
▁numerous	-10.19
mäßig	-10.19
▁Linux	-10.1902
▁minimum	-10.1908
ös	-10.1913
▁bath	-10.1921
▁beitragen	-10.1922
▁Mediterranean	-10.1924
▁wider	-10.1924
▁fine	-10.1928
▁payment	-10.1929
▁verantwortlich	-10.193
▁Wochen	-10.1932
ged	-10.1933
▁Ki	-10.1934
▁Rechnung	-10.1934
▁geworden	-10.1934
▁terrace	-10.1934
igung	-10.1935
▁genommen	-10.1943
▁diejenigen	-10.1943
▁waste	-10.1943
è	-10.1944
▁Bilder	-10.1944
▁abzu	-10.1949
▁types	-10.195
▁swimming	-10.1951
eck	-10.1952
▁lower	-10.1954
▁reading	-10.1954
▁lang	-10.1961
ight	-10.1964
▁wenige	-10.1966
▁employees	-10.1968
▁Öffentlichkeit	-10.1968
▁benefits	-10.197
ped	-10.1972
▁regime	-10.1978
▁photo	-10.1978
fähig	-10.1984
▁paar	-10.1991
▁brand	-10.1991
▁stress	-10.1995
▁Mor	-10.1995
tlich	-10.1999
▁Vertreter	-10.2005
▁sign	-10.2009
ious	-10.2013
▁reality	-10.2013
▁gefunden	-10.202
▁Ressourcen	-10.2025
▁Ausbildung	-10.203
▁section	-10.203
▁Directive	-10.2038
cre	-10.2038
▁Your	-10.204
▁author	-10.2042
rank	-10.2047
▁sieht	-10.2048
▁Nationen	-10.205
▁Kern	-10.205
wing	-10.2054
▁sent	-10.2071
▁Fl	-10.2081
▁foot	-10.2081
bal	-10.2085
▁immediately	-10.2087
▁installation	-10.209
lig	-10.2093
▁instruments	-10.2105
▁feature	-10.2108
▁daily	-10.2108
98	-10.2112
▁ro	-10.2118
Schlusselwortern	-10.2121
▁Prozent	-10.2125
ante	-10.2126
Le	-10.2128
▁Spanien	-10.2133
▁Hinsicht	-10.2133
bei	-10.2137
▁cut	-10.2139
▁deliver	-10.2141
▁Center	-10.2142
zimmer	-10.2142
▁talk	-10.2143
▁ta	-10.2154
▁Modell	-10.2154
▁begrüße	-10.2156
▁permanent	-10.216
ros	-10.2164
▁erwartet	-10.2164
▁poverty	-10.2168
nder	-10.2176
▁Bemühungen	-10.2177
▁modified	-10.2177
las	-10.2181
▁gerecht	-10.2186
▁saying	-10.2189
▁scientific	-10.2195
istic	-10.2198
lang	-10.2201
▁erklärt	-10.2204
09	-10.2205
▁zusätzliche	-10.2207
tischen	-10.2207
▁gelten	-10.221
RO	-10.2211
▁consequences	-10.2212
lei	-10.2213
▁Winter	-10.2218
▁Vo	-10.2218
▁transparency	-10.2221
▁ausschließlich	-10.2221
▁highest	-10.2221
▁gewählt	-10.2231
äu	-10.2234
System	-10.2237
▁Roma	-10.224
▁challenges	-10.2243
vers	-10.2244
sur	-10.2246
▁Sache	-10.2246
▁getan	-10.2249
▁1997	-10.225
▁eher	-10.225
▁Regeln	-10.2252
reich	-10.2253
ari	-10.2261
▁elections	-10.2262
board	-10.2274
▁geschaffen	-10.2276
▁Licht	-10.2277
▁colleagues	-10.2278
▁challenge	-10.2288
arch	-10.229
not	-10.2291
▁Th	-10.2296
▁tools	-10.2299
rang	-10.2299
▁verhindern	-10.2301
▁Aufgaben	-10.2301
ists	-10.2302
▁evening	-10.2302
lia	-10.2306
▁target	-10.2306
daten	-10.2307
▁integrated	-10.2307
dienst	-10.2311
▁Aufnahme	-10.2312
ux	-10.2322
▁persons	-10.2325
▁adopt	-10.2327
▁Bürgerinnen	-10.233
laden	-10.2336
▁analysis	-10.2336
▁morning	-10.2336
▁crucial	-10.2337
▁Chinese	-10.2337
ette	-10.234
att	-10.2342
▁paid	-10.2347
▁Gar	-10.2348
▁richtige	-10.2348
▁Präsidenten	-10.2349
01	-10.2355
anten	-10.2355
▁che	-10.2362
▁schützen	-10.2364
ita	-10.2368
▁carry	-10.2371
25	-10.2371
▁practical	-10.2372
▁Staat	-10.2373
▁annual	-10.2373
▁Systems	-10.2377
▁inform	-10.238
ec	-10.2381
part	-10.2384
▁Furthermore	-10.239
▁Tor	-10.2394
rie	-10.2397
zentrum	-10.2397
▁Körper	-10.2399
▁Wunsch	-10.2399
▁map	-10.2401
▁geeignet	-10.2401
isiert	-10.2402
ron	-10.2403
▁Za	-10.2407
ric	-10.2414
zahl	-10.2415
▁street	-10.2427
sis	-10.2431
▁letzte	-10.2432
EC	-10.2432
▁90	-10.2433
▁led	-10.2434
▁happy	-10.2435
▁bessere	-10.2436
▁gewesen	-10.2438
▁nu	-10.244
▁contribute	-10.2443
▁Although	-10.2444
▁Airport	-10.2445
ris	-10.2445
▁attempt	-10.2446
▁sort	-10.2449
▁Mac	-10.245
▁offered	-10.2451
▁break	-10.2452
▁requires	-10.2452
▁Many	-10.2453
▁partnership	-10.2454
▁Nr	-10.2456
▁Green	-10.2459
▁screen	-10.2462
▁congratulate	-10.2462
▁electronic	-10.2462
LE	-10.2467
▁efficiency	-10.2468
▁infrastructure	-10.2471
ification	-10.2472
▁green	-10.2478
▁gen	-10.2482
▁anzu	-10.2486
▁lives	-10.2487
▁Austria	-10.2495
lor	-10.2496
▁Public	-10.2499
▁beste	-10.25
▁apartments	-10.2502
▁Verwaltung	-10.2508
bringen	-10.2516
▁Ratspräsident	-10.252
▁comprehensive	-10.2526
▁shopping	-10.2526
▁fire	-10.2528
▁selection	-10.2529
▁advantage	-10.2536
tter	-10.2537
▁Datei	-10.2538
lö	-10.254
▁solidarity	-10.2544
zig	-10.2546
▁Öl	-10.2547
▁ju	-10.2548
▁delay	-10.255
▁anything	-10.2553
stehen	-10.2554
ev	-10.2556
q	-10.2559
än	-10.2561
▁Amendment	-10.2564
▁ziehen	-10.2564
▁Werk	-10.2565
cent	-10.2565
zeug	-10.2566
▁select	-10.2569
▁garden	-10.2569
▁fish	-10.2573
▁beide	-10.2573
ever	-10.2579
▁Russian	-10.2583
▁erlaubt	-10.259
▁respond	-10.2594
▁sales	-10.2596
ssen	-10.2596
▁weder	-10.2598
▁Angelegenheit	-10.2603
▁display	-10.2609
AS	-10.2611
▁Fuß	-10.2611
▁administrative	-10.2617
▁engine	-10.2617
▁Bu	-10.262
wand	-10.2621
▁Gen	-10.2623
can	-10.2624
▁Versuch	-10.2629
mark	-10.2632
▁tief	-10.2632
▁jene	-10.2638
ctor	-10.2641
ock	-10.2643
▁Besucher	-10.2644
▁Gast	-10.2653
▁29	-10.2653
▁Fällen	-10.2655
▁relate	-10.2656
rit	-10.2656
▁Roman	-10.2657
▁Monaten	-10.2661
▁Erfahrungen	-10.2666
▁Bürgern	-10.2669
▁strategic	-10.2672
▁kennen	-10.2672
wer	-10.2673
ping	-10.2674
xi	-10.2681
▁campaign	-10.2681
ät	-10.2684
▁collection	-10.2686
▁kam	-10.269
wasser	-10.269
▁methods	-10.2691
▁operating	-10.2691
▁caused	-10.2697
▁camera	-10.2699
leg	-10.2699
▁nimmt	-10.2699
▁maximum	-10.27
▁measure	-10.2705
▁gu	-10.2709
cur	-10.2711
▁implemented	-10.2712
▁More	-10.2714
▁Installation	-10.2716
▁stabil	-10.2716
▁Even	-10.2718
▁Security	-10.2718
ati	-10.2722
ola	-10.2727
▁Annahme	-10.2732
▁Natürlich	-10.2737
tische	-10.2746
ley	-10.2746
▁berücksichtigt	-10.2746
▁Microsoft	-10.2746
eln	-10.2749
▁ready	-10.2757
istischen	-10.2759
▁Gesundheits	-10.2764
▁accordance	-10.2765
haft	-10.2769
kor	-10.2774
▁published	-10.2774
▁Sal	-10.278
▁Garten	-10.2782
▁relating	-10.2784
▁Real	-10.279
▁Fri	-10.2792
ons	-10.2792
▁weak	-10.2794
fr	-10.2796
▁mass	-10.2797
14	-10.2798
▁Stand	-10.2799
08	-10.2799
▁Pass	-10.2799
eg	-10.2801
▁Conference	-10.2803
seite	-10.2804
▁terrorism	-10.2804
▁stärker	-10.2809
▁Ti	-10.2811
▁border	-10.2812
▁Aspekte	-10.2816
▁monitoring	-10.2823
▁suchen	-10.2824
▁organisations	-10.2829
▁sämtliche	-10.283
ef	-10.2835
▁historic	-10.2842
▁historischen	-10.2843
▁Durchführung	-10.2851
ato	-10.2851
▁Linie	-10.2854
▁Ben	-10.2855
cker	-10.2855
stadt	-10.2858
▁geändert	-10.2859
▁Menschenrechts	-10.2862
preise	-10.2863
ei	-10.2866
▁sometimes	-10.2868
▁motion	-10.2874
▁Atmosphäre	-10.2877
▁Mehr	-10.2878
▁technologies	-10.2878
▁Meter	-10.2884
oder	-10.2886
▁probably	-10.2887
▁fordern	-10.2887
▁log	-10.2888
▁forces	-10.289
▁raised	-10.2894
▁processes	-10.2896
ging	-10.2897
bahn	-10.2898
▁ways	-10.2904
▁Armut	-10.2907
▁negative	-10.2911
tim	-10.2912
▁IN	-10.2913
▁oft	-10.2915
▁folgen	-10.2922
rich	-10.293
▁Costa	-10.293
▁dr	-10.2934
▁remind	-10.2934
▁friends	-10.2935
▁Kompromiss	-10.2944
▁Menge	-10.2944
17	-10.2944
iti	-10.2945
▁season	-10.2946
grad	-10.2947
▁4.	-10.2949
ement	-10.2949
unter	-10.2955
▁rise	-10.2956
▁farmers	-10.2956
kal	-10.2956
▁While	-10.2963
▁Zeichen	-10.2963
▁prior	-10.2964
▁genannten	-10.2971
▁verpflichtet	-10.2972
▁warum	-10.2979
▁Gas	-10.2979
▁Viele	-10.2979
▁deep	-10.298
▁anderem	-10.298
▁Führung	-10.2981
▁Fe	-10.2982
sol	-10.299
▁official	-10.2992
▁genug	-10.2992
▁Bio	-10.2993
sort	-10.3001
▁signal	-10.3003
ellen	-10.3003
▁überhaupt	-10.3005
▁heutigen	-10.3008
▁Col	-10.3009
mie	-10.3013
▁Besuch	-10.3015
tru	-10.3017
▁Str	-10.3018
▁Praxis	-10.302
▁Fest	-10.3025
▁Lang	-10.3026
wirtschaftlichen	-10.3027
▁tomorrow	-10.3029
schein	-10.3033
old	-10.3037
mut	-10.3038
▁administration	-10.3039
▁erinnern	-10.3039
▁voting	-10.304
▁paper	-10.3041
▁einge	-10.3043
▁veröffentlicht	-10.3048
▁attack	-10.305
hand	-10.305
schlag	-10.3052
kin	-10.3055
tern	-10.3057
▁south	-10.306
▁Gi	-10.3063
nehmen	-10.3063
La	-10.3065
▁refer	-10.3066
▁purchase	-10.3068
▁hätten	-10.307
▁usw	-10.3072
▁join	-10.3073
▁sports	-10.3074
04	-10.3077
▁jeweiligen	-10.3079
▁Schritte	-10.3083
▁bank	-10.3084
▁overall	-10.3084
▁clients	-10.3084
▁genutzt	-10.3087
▁fear	-10.309
ique	-10.3091
▁growing	-10.3092
▁Risiko	-10.3093
▁weeks	-10.3096
house	-10.31
▁Chi	-10.3102
hör	-10.3106
▁stets	-10.3107
ves	-10.311
▁Augen	-10.3112
pol	-10.3116
▁Begriff	-10.3118
▁vorgelegt	-10.3119
werte	-10.3121
▁consideration	-10.3121
▁Par	-10.3123
▁voice	-10.3126
▁Vergleich	-10.313
▁unbe	-10.3131
▁zahlreichen	-10.3133
▁decide	-10.3136
▁Denn	-10.3138
▁sh	-10.3143
nie	-10.3151
▁Vergangenheit	-10.3154
rea	-10.3156
▁sur	-10.3159
▁bald	-10.3159
▁ging	-10.3159
▁Mitgliedstaat	-10.3164
ili	-10.3165
▁Partnerschaft	-10.317
▁Kar	-10.3176
▁Room	-10.3178
▁Kor	-10.3178
▁Rad	-10.3182
▁bringt	-10.3183
▁Google	-10.3183
▁ausdrücklich	-10.3183
▁John	-10.3184
▁Min	-10.3185
Me	-10.3187
▁cover	-10.3187
▁ideas	-10.3188
▁Firmen	-10.3193
▁les	-10.3194
statt	-10.3195
▁Schwierigkeiten	-10.3196
▁Solidarität	-10.3196
▁spielt	-10.3197
▁Angelegenheiten	-10.3198
▁Rede	-10.3202
▁appear	-10.3209
▁interested	-10.3209
▁Außen	-10.3211
wirtschaft	-10.3214
▁cur	-10.3218
schließ	-10.3222
▁criminal	-10.3222
▁images	-10.3224
05	-10.3228
▁Netzwerk	-10.3232
SP	-10.3234
▁zumindest	-10.3238
▁Thank	-10.3238
PT	-10.3244
▁businesses	-10.3249
-1	-10.3251
▁degree	-10.3252
▁Ste	-10.3258
▁verfügbar	-10.3259
dic	-10.3261
ture	-10.3263
▁worldwide	-10.3264
16	-10.3264
cha	-10.3265
▁tätig	-10.3276
▁player	-10.3277
06	-10.3279
▁außerhalb	-10.3281
▁getroffen	-10.3281
room	-10.3287
▁Tagen	-10.3287
▁walking	-10.3288
br	-10.3289
▁eben	-10.3289
▁debt	-10.3292
▁Einrichtung	-10.3294
▁starting	-10.3298
▁Wohn	-10.3304
▁absolutely	-10.3309
▁unten	-10.3309
▁darstellt	-10.3311
jahr	-10.3316
▁spend	-10.3316
▁Moment	-10.3317
99	-10.3318
▁visitors	-10.332
AM	-10.3321
▁Super	-10.3324
▁Restaurants	-10.3325
▁tri	-10.3329
▁traffic	-10.333
sha	-10.3334
MA	-10.3335
svorschriften	-10.3336
til	-10.3338
▁allgemeinen	-10.3339
park	-10.335
▁gesetzt	-10.3353
▁Sonder	-10.3356
din	-10.3356
▁UK	-10.3357
ata	-10.3359
▁lines	-10.3362
▁Zweck	-10.3363
utz	-10.3364
We	-10.3366
isieren	-10.3367
▁Dann	-10.3376
▁stimmen	-10.3378
▁!	-10.3381
▁character	-10.3381
▁=	-10.3384
wesen	-10.3387
▁organisiert	-10.3387
▁Ausschuß	-10.339
▁benutzt	-10.339
▁fresh	-10.339
DI	-10.3394
▁Zweitens	-10.3397
▁erfüllen	-10.3399
▁fo	-10.3404
glich	-10.3407
▁patent	-10.341
▁persönlichen	-10.3414
▁options	-10.3417
▁super	-10.3417
▁Auftrag	-10.3425
18	-10.3426
▁min	-10.3427
▁Afrika	-10.3429
▁Terrorismus	-10.343
▁extent	-10.343
▁trip	-10.3432
wert	-10.3433
▁players	-10.3434
Lassen	-10.3435
Ge	-10.3437
▁hot	-10.3438
EM	-10.3441
▁Frankfurt	-10.3449
▁x	-10.3453
▁cities	-10.3462
gruppen	-10.3466
▁Fahr	-10.3468
▁Schl	-10.3471
ore	-10.3473
▁Einige	-10.3474
▁wählen	-10.3479
▁aktuelle	-10.3481
how	-10.3483
ju	-10.3486
▁Link	-10.3487
▁translation	-10.3489
▁Nun	-10.3499
▁Obwohl	-10.3499
▁trotz	-10.3499
mes	-10.35
▁Economic	-10.3509
▁extensive	-10.3509
▁mu	-10.3515
bra	-10.3516
vin	-10.3517
▁Material	-10.3518
ties	-10.3519
▁assessment	-10.3523
▁provision	-10.3532
▁vo	-10.3536
lie	-10.3539
▁hervor	-10.3544
▁Just	-10.3544
▁Tu	-10.3548
▁Afghanistan	-10.3549
▁Partei	-10.3553
ero	-10.3559
De	-10.3564
▁folgenden	-10.3565
over	-10.3567
▁Falle	-10.3569
▁regelmäßig	-10.357
▁benötigt	-10.357
▁Bewertung	-10.357
▁Ph	-10.3572
▁begrüßen	-10.3574
▁ko	-10.3577
bb	-10.3581
▁resort	-10.3585
▁Ze	-10.3585
▁save	-10.3589
put	-10.3596
▁liebe	-10.3599
▁Agreement	-10.36
▁ban	-10.3607
▁Ist	-10.3608
ep	-10.3609
▁arbeitet	-10.361
▁Mitteilung	-10.3612
mil	-10.3614
▁Gold	-10.3618
▁spirit	-10.362
▁Struktur	-10.3621
LO	-10.3621
station	-10.3623
work	-10.3636
uck	-10.3637
▁accession	-10.3646
IC	-10.3646
▁Dazu	-10.3649
▁länger	-10.3651
▁remember	-10.3652
▁modernen	-10.3653
▁vorhanden	-10.3655
▁Kauf	-10.366
▁lies	-10.3661
▁deutschen	-10.3665
chten	-10.3671
▁em	-10.3672
▁beginnen	-10.3674
▁Best	-10.3676
▁technischen	-10.3678
▁namely	-10.368
▁Download	-10.3681
verfahren	-10.3681
▁opening	-10.3684
▁games	-10.3684
▁erstellt	-10.3686
▁Foto	-10.3687
▁Ger	-10.3687
▁trust	-10.3692
▁Schlüssel	-10.3702
mas	-10.3702
▁Abend	-10.3702
bald	-10.3708
▁Ch	-10.371
▁Board	-10.3715
▁borders	-10.3715
▁representatives	-10.3719
▁Milliarden	-10.372
▁Allerdings	-10.3722
Fi	-10.3727
oo	-10.3729
▁talking	-10.373
▁leaders	-10.373
▁Ost	-10.373
▁database	-10.3733
▁genannt	-10.3734
day	-10.3734
▁Boden	-10.3736
▁Will	-10.3737
▁Künstler	-10.3743
▁Inhalte	-10.3748
▁track	-10.3751
▁participate	-10.3752
▁trying	-10.3752
tung	-10.3754
60	-10.3756
schluss	-10.3757
▁Dienste	-10.3758
▁wonderful	-10.3758
▁Stil	-10.3762
0.000	-10.3763
▁structural	-10.3763
▁Ireland	-10.3763
▁voran	-10.3766
▁processing	-10.3768
▁Every	-10.3773
▁Sitz	-10.3773
▁Beratung	-10.3774
▁powerful	-10.3775
▁powers	-10.3775
▁entscheiden	-10.3777
▁betreffend	-10.3777
▁Konflikt	-10.3778
▁gesehen	-10.3778
▁Alter	-10.3781
▁fields	-10.3786
▁defend	-10.3788
5%	-10.379
▁Süd	-10.3798
sätze	-10.3801
▁Moreover	-10.3805
▁gain	-10.3808
▁Enterprise	-10.381
▁fort	-10.3811
▁Technik	-10.3815
▁NATO	-10.3815
▁entspricht	-10.3815
▁Arab	-10.382
▁languages	-10.3821
▁endlich	-10.3822
▁Office	-10.3823
▁Erstens	-10.3828
▁übernehmen	-10.3828
▁conclusion	-10.3833
▁lost	-10.3834
13	-10.3835
▁Kur	-10.3836
atur	-10.3839
24	-10.3842
ack	-10.3843
▁te	-10.3845
▁yourself	-10.3846
▁aktiv	-10.3856
▁reduced	-10.3857
▁Pan	-10.3863
gegeben	-10.3865
▁überzeugt	-10.3867
▁welches	-10.3868
▁Einfluss	-10.3868
▁1996	-10.3869
tte	-10.3877
sicht	-10.3878
▁emissions	-10.3879
97	-10.388
▁strengthen	-10.3887
▁month	-10.3891
gy	-10.3891
▁district	-10.3898
▁Stein	-10.3899
▁bitten	-10.3901
ET	-10.3902
vention	-10.3903
▁Fisch	-10.3913
▁vorgesehen	-10.3915
▁Swiss	-10.3919
▁jährlich	-10.3919
▁sal	-10.3921
og	-10.3923
▁Bis	-10.3926
ong	-10.3928
▁beteiligt	-10.3929
▁beschlossen	-10.393
▁Zustimmung	-10.393
▁kaum	-10.3932
▁exhibition	-10.3932
▁Schiff	-10.3932
▁alone	-10.3932
▁Ve	-10.3934
▁Berichts	-10.3936
ED	-10.3938
▁außer	-10.394
▁justice	-10.3945
▁intended	-10.395
▁accepted	-10.3953
▁Secondly	-10.3955
▁Multi	-10.3956
fragen	-10.3963
▁plans	-10.3965
SA	-10.3966
▁condition	-10.3967
▁Holz	-10.3968
▁discuss	-10.3969
▁gefordert	-10.3973
low	-10.3973
ct	-10.3974
▁Osten	-10.3974
▁nationale	-10.3976
▁li	-10.3978
▁privaten	-10.398
Programm	-10.3981
systeme	-10.3984
▁fall	-10.3985
▁demands	-10.3988
▁expressed	-10.399
istische	-10.3994
ett	-10.3995
▁klare	-10.3996
▁Last	-10.3997
kel	-10.3997
▁Wann	-10.3998
▁35	-10.4006
▁wanted	-10.4006
fahren	-10.4008
▁Iraq	-10.4011
ory	-10.4016
▁wahrscheinlich	-10.4017
▁Antrag	-10.4019
nu	-10.4019
ute	-10.4023
erstatterin	-10.4027
Ro	-10.4033
▁mainly	-10.4034
▁wrong	-10.4035
▁Volk	-10.4035
▁Asia	-10.404
▁Regel	-10.404
▁Texte	-10.4042
OS	-10.4042
▁konkrete	-10.4045
▁Analyse	-10.4045
▁11.	-10.4047
su	-10.405
▁erhöht	-10.4056
Pa	-10.406
▁heard	-10.4062
chte	-10.4064
▁calls	-10.4066
▁Serie	-10.4069
):	-10.4072
▁Mer	-10.4072
▁Parteien	-10.4073
▁unemployment	-10.4077
▁planning	-10.4079
▁Nations	-10.4082
voll	-10.4083
santrag	-10.4083
ham	-10.4083
▁Zweifel	-10.4088
ants	-10.4089
▁Sollte	-10.4089
▁obtain	-10.4094
service	-10.4098
▁People	-10.4098
▁verstärkt	-10.4098
ären	-10.4099
▁client	-10.4102
car	-10.4118
▁police	-10.412
▁Fortschritt	-10.4126
▁shower	-10.4129
dar	-10.4129
▁rasch	-10.4134
ng	-10.4135
yl	-10.4136
Pro	-10.414
▁Stellungnahme	-10.4141
▁automatically	-10.4141
▁Indeed	-10.4141
▁Anerkennung	-10.4142
▁Social	-10.4144
bla	-10.4146
▁Ganz	-10.4147
▁Bre	-10.4151
▁Paul	-10.4151
▁Charakter	-10.4152
▁vorgeschlagen	-10.4153
▁install	-10.4158
▁Hause	-10.4158
▁Christ	-10.4158
▁proper	-10.4158
▁Waren	-10.4159
NA	-10.416
▁record	-10.4161
▁unver	-10.4161
▁angeboten	-10.4163
meter	-10.4166
▁initiatives	-10.417
▁geleistet	-10.4173
▁bad	-10.4174
▁mis	-10.4175
uk	-10.4181
▁Idee	-10.4183
▁Kritik	-10.4184
▁cohesion	-10.4195
▁gegründet	-10.4195
rlei	-10.4199
era	-10.4201
▁eng	-10.4203
light	-10.4204
▁festgelegt	-10.4204
▁Dem	-10.4211
▁danke	-10.4213
▁comment	-10.4214
://	-10.4216
▁Abschluss	-10.4219
▁white	-10.4219
reichen	-10.4221
▁invest	-10.4224
pan	-10.4224
▁Tradition	-10.4226
▁Größe	-10.4227
▁fellow	-10.4227
tation	-10.4231
ologie	-10.4231
anlagen	-10.4232
▁guide	-10.4233
▁command	-10.4238
▁Ci	-10.4245
96	-10.4248
called	-10.4248
▁perspective	-10.4248
▁delivery	-10.425
▁Zusammen	-10.425
▁Gipfel	-10.4255
▁sectors	-10.4255
▁bilateral	-10.4259
▁worked	-10.4261
▁zudem	-10.4265
▁Martin	-10.4266
ani	-10.4267
▁circumstances	-10.427
▁erweitert	-10.427
bin	-10.4273
▁Geist	-10.4273
Hotel	-10.4273
ology	-10.4277
▁Casino	-10.4281
▁families	-10.4285
▁Most	-10.4287
▁Privat	-10.4287
rechte	-10.4288
▁wirtschaftlich	-10.4289
lose	-10.429
▁technische	-10.4295
ella	-10.4296
▁cu	-10.4297
▁Verpflichtungen	-10.43
▁firm	-10.43
pot	-10.4304
sprozess	-10.4308
gesellschaft	-10.4308
▁(19	-10.4311
▁schöne	-10.4319
▁placed	-10.432
▁Wahlen	-10.4324
▁Kapital	-10.4324
▁recommend	-10.4324
▁kitchen	-10.4324
▁changed	-10.4326
▁advance	-10.4327
▁explain	-10.4328
dis	-10.4329
▁Vorteile	-10.4333
uß	-10.4333
nic	-10.4334
▁Hersteller	-10.4335
▁1990	-10.4338
▁ihres	-10.4339
cul	-10.4343
▁crime	-10.4344
▁element	-10.4344
▁Landschaft	-10.4346
▁committed	-10.4346
▁watch	-10.4347
tive	-10.4349
▁Dokument	-10.4353
70	-10.4355
▁finanzielle	-10.4355
legung	-10.4355
▁Anstrengungen	-10.4356
▁Messe	-10.4357
ziel	-10.4358
LI	-10.436
▁gesprochen	-10.436
▁Irak	-10.436
▁Dienst	-10.4363
▁Bundes	-10.4368
test	-10.4372
DA	-10.4372
▁God	-10.4375
▁monitor	-10.4377
▁Falls	-10.4379
ey	-10.4384
weisen	-10.4385
▁Zi	-10.4387
▁Produktions	-10.439
▁geschützt	-10.4393
▁Code	-10.4395
▁river	-10.4397
03	-10.4398
▁aufzu	-10.4399
▁Del	-10.4399
▁wesentlich	-10.44
▁Suche	-10.4401
▁berücksichtigen	-10.4401
▁ensuring	-10.4401
▁session	-10.4401
▁promotion	-10.4402
▁reg	-10.4402
▁sitting	-10.4402
▁fahren	-10.4403
▁affected	-10.4403
▁bilden	-10.4403
▁Zeitraum	-10.4408
▁Arbeitsplätze	-10.4409
han	-10.441
laufen	-10.4412
▁unbedingt	-10.4414
▁inside	-10.4417
▁plus	-10.442
▁banks	-10.4422
▁Österreich	-10.4423
▁braucht	-10.4423
nnen	-10.4423
▁suitable	-10.4424
ssystem	-10.4428
▁manner	-10.4432
▁sc	-10.4433
▁Überwachung	-10.4434
▁täglich	-10.4434
▁reforms	-10.4435
▁Mann	-10.4437
▁alte	-10.4437
▁union	-10.4438
▁comments	-10.444
▁critical	-10.4441
gruppe	-10.4441
▁income	-10.4444
tritt	-10.4445
▁telephone	-10.4445
▁began	-10.4448
▁angesprochen	-10.4448
▁ability	-10.445
ara	-10.4451
▁Sub	-10.4452
▁His	-10.4453
▁Kriterien	-10.4456
▁Czech	-10.4456
▁Hintergrund	-10.4456
▁Mitte	-10.4457
▁Tätigkeit	-10.4457
▁running	-10.4457
LA	-10.4461
sbereich	-10.4462
▁raise	-10.4462
llen	-10.4462
▁box	-10.4463
▁mode	-10.4464
▁mon	-10.4465
setzen	-10.4467
▁erfüllt	-10.447
▁increasingly	-10.447
rator	-10.447
▁anerkannt	-10.4478
lit	-10.4487
oni	-10.4487
▁op	-10.4489
▁"...	-10.4489
▁Homepage	-10.4489
rin	-10.4489
▁railway	-10.4491
▁store	-10.4491
▁Wege	-10.4492
")	-10.4497
av	-10.4499
▁Übersetzung	-10.4501
schuld	-10.4504
maßnahmen	-10.451
▁erkennen	-10.4513
▁count	-10.4516
▁gr	-10.4522
▁Engagement	-10.4522
▁Studio	-10.4522
els	-10.4522
ank	-10.4527
▁Wander	-10.4528
▁Comp	-10.453
wechsel	-10.4531
▁Reformen	-10.4533
ordnung	-10.4543
fällig	-10.4545
▁(1	-10.4547
▁goal	-10.455
▁ri	-10.4551
▁Vereinbarung	-10.4552
bl	-10.4553
▁operate	-10.4553
▁symbol	-10.4555
▁priorities	-10.4556
▁shape	-10.4556
gas	-10.4558
▁Gesetz	-10.456
▁served	-10.4563
▁Kurs	-10.4564
setzung	-10.4566
rum	-10.4575
à	-10.4576
▁exercise	-10.4578
▁fruit	-10.4578
▁Policy	-10.4578
80	-10.4579
vol	-10.4582
▁oben	-10.4583
“,	-10.4583
▁sagt	-10.4585
▁approved	-10.4586
▁purposes	-10.4588
▁instance	-10.4588
chi	-10.4592
▁Ober	-10.4593
lung	-10.4595
▁bestehenden	-10.4595
fach	-10.4597
▁victims	-10.4599
▁confidence	-10.46
▁gezeigt	-10.46
▁otherwise	-10.46
▁Gegen	-10.4601
frage	-10.4601
▁Each	-10.4609
▁euch	-10.4609
▁entstehen	-10.4609
▁improved	-10.461
▁whom	-10.4613
▁India	-10.4614
▁bestimmt	-10.4615
▁Christian	-10.4615
▁farm	-10.4617
▁wind	-10.4617
▁valid	-10.4621
▁Bewegung	-10.4623
▁bewusst	-10.4623
▁bequem	-10.4624
▁specifically	-10.4625
itz	-10.4633
hren	-10.4633
▁platform	-10.4634
▁pleasant	-10.4634
▁scope	-10.4634
ré	-10.4637
▁Only	-10.4641
▁black	-10.4645
▁komplett	-10.4646
▁nötig	-10.4646
avi	-10.4647
▁una	-10.4656
kan	-10.4661
▁mehreren	-10.4662
ST	-10.4662
tar	-10.4667
▁typical	-10.4668
▁summit	-10.4668
▁Tro	-10.4675
▁umgesetzt	-10.4676
▁students	-10.4677
▁currency	-10.4679
▁mindestens	-10.4679
▁medical	-10.4679
▁Telefon	-10.4679
▁bear	-10.4682
code	-10.4683
▁groß	-10.4685
▁Cap	-10.4686
bu	-10.4696
▁allgemeine	-10.4697
▁else	-10.47
▁Monat	-10.4701
▁rural	-10.4702
zugehen	-10.4703
▁Control	-10.4706
▁detailed	-10.4707
▁th	-10.4709
entwicklung	-10.4713
▁entschieden	-10.4713
▁Click	-10.4714
▁organisation	-10.4715
▁2020	-10.4717
▁bezeichnet	-10.4718
▁buy	-10.4719
▁speech	-10.472
▁happen	-10.4721
▁wood	-10.473
▁Paket	-10.4733
▁Technologien	-10.4734
▁150	-10.4735
misch	-10.4735
▁laws	-10.4736
▁Phase	-10.4737
▁tour	-10.4738
▁touch	-10.4739
▁Mio	-10.4741
well	-10.4744
▁agriculture	-10.4747
▁manage	-10.4748
ular	-10.4748
▁Great	-10.4749
▁stated	-10.4751
gra	-10.4754
90	-10.4757
sized	-10.4759
▁reception	-10.4761
▁notice	-10.4764
prä	-10.4764
link	-10.4765
▁Peter	-10.4765
▁folgende	-10.4771
▁Station	-10.4771
▁ve	-10.4776
▁echte	-10.4777
bad	-10.4777
zeichen	-10.4778
т	-10.478
▁represent	-10.4781
▁Botschaft	-10.4781
▁Chance	-10.4781
▁Teilnehmer	-10.4782
▁finance	-10.4785
▁competitive	-10.4787
▁4-	-10.4788
▁forget	-10.4789
▁schwierig	-10.479
▁ka	-10.479
▁5.	-10.4793
▁akzeptieren	-10.4796
▁combat	-10.4803
▁micro	-10.4805
▁Tagung	-10.4806
▁benutzen	-10.481
Sp	-10.4812
▁wünschen	-10.4812
▁angezeigt	-10.4815
▁Schengen	-10.4815
▁lake	-10.4817
▁absolut	-10.4818
▁loss	-10.4818
▁Terrasse	-10.4819
▁entgegen	-10.482
get	-10.4821
▁expected	-10.4824
ände	-10.4831
▁introduction	-10.4838
rus	-10.484
▁Gründe	-10.4846
▁arm	-10.4846
categories	-10.4848
▁ISO	-10.4848
▁unabhängig	-10.4849
gal	-10.485
▁prüfen	-10.485
mmer	-10.485
▁unmittelbar	-10.4851
▁enterprises	-10.4853
partner	-10.4853
▁falls	-10.4853
▁nachdem	-10.4854
▁Trans	-10.4854
▁dienen	-10.4855
▁opened	-10.4858
bett	-10.4859
▁Anpassung	-10.4861
▁Typ	-10.4862
name	-10.4864
▁introduce	-10.4865
▁larger	-10.4868
▁establishment	-10.4868
▁Erst	-10.4869
▁February	-10.487
▁demokratischen	-10.487
▁Tier	-10.487
▁participation	-10.4873
▁Leistung	-10.4873
▁Hafen	-10.4885
▁Well	-10.4887
▁sources	-10.4889
▁tr	-10.4889
TV	-10.489
▁entry	-10.4892
▁seines	-10.4894
▁Monate	-10.4898
ect	-10.4902
▁introduced	-10.4903
▁massive	-10.4906
▁landscape	-10.4907
IP	-10.4908
▁mi	-10.4908
▁Sprachen	-10.4909
eil	-10.4909
▁Aussicht	-10.491
▁Zwei	-10.491
blick	-10.4911
▁letter	-10.4917
▁Fo	-10.4918
▁spacious	-10.4919
▁discussions	-10.4919
▁gleiche	-10.492
▁precisely	-10.4924
▁Time	-10.4925
▁Hoffnung	-10.493
▁kostenlos	-10.4932
▁institutional	-10.4934
▁hear	-10.4934
▁Straßen	-10.4939
▁sicherzustellen	-10.4943
schl	-10.4944
▁winter	-10.4945
▁ship	-10.4946
▁managed	-10.4949
▁born	-10.495
▁zuletzt	-10.4953
▁Kan	-10.4954
▁Anspruch	-10.4954
det	-10.4954
▁functions	-10.4963
gan	-10.4964
▁verändert	-10.4965
▁becoming	-10.4966
▁möglicherweise	-10.4967
▁glauben	-10.4967
▁effectively	-10.4968
genommen	-10.4969
ffen	-10.4972
▁getting	-10.4973
▁discussed	-10.4973
▁Dom	-10.4974
bro	-10.4976
▁Ausgaben	-10.4985
▁exclusive	-10.499
lk	-10.4992
ala	-10.4998
▁Over	-10.4998
▁Unterkategorien	-10.5
▁cuisine	-10.5
▁Hi	-10.5001
07	-10.5001
▁Mess	-10.5001
▁cl	-10.5008
▁Aufbau	-10.5009
▁funktioniert	-10.5012
▁Karte	-10.5014
▁exactly	-10.5015
gli	-10.5019
▁Agenda	-10.5023
▁spread	-10.5024
▁Wellness	-10.5025
21	-10.5025
cor	-10.5026
▁aimed	-10.5026
▁intention	-10.5027
▁tabled	-10.5027
bas	-10.5031
hy	-10.5032
▁umfassende	-10.5035
▁Vorbereitung	-10.5035
▁serve	-10.5036
▁1995	-10.5037
▁hu	-10.504
▁Hor	-10.5041
▁Komfort	-10.5047
▁failure	-10.5048
▁linked	-10.505
▁Sam	-10.5051
▁networks	-10.5054
var	-10.5055
▁picture	-10.5058
▁Middle	-10.5058
▁covered	-10.5068
ht	-10.5068
vert	-10.5069
▁ergreifen	-10.5071
▁Organisationen	-10.5072
▁protected	-10.5075
met	-10.5076
izing	-10.5078
▁played	-10.5078
▁Infrastruktur	-10.508
▁properly	-10.5081
▁court	-10.5082
▁title	-10.5084
my	-10.5085
pel	-10.5086
▁besonderen	-10.5086
▁notwendigen	-10.5092
vid	-10.5093
▁According	-10.5093
▁dealing	-10.5094
▁referred	-10.5094
22	-10.5095
▁hinweisen	-10.5095
▁Qualitäts	-10.5099
▁Ihres	-10.51
tt	-10.5104
SI	-10.5106
▁Haltung	-10.5109
▁tourism	-10.511
illa	-10.5114
▁Research	-10.5117
▁surface	-10.5117
▁fuel	-10.5118
rei	-10.512
lü	-10.5123
cord	-10.5124
▁Festival	-10.5126
▁Schließlich	-10.5129
baren	-10.5134
▁Nutzen	-10.5134
gue	-10.5138
Se	-10.5139
▁Maschinen	-10.5141
▁Titel	-10.5142
▁seat	-10.5143
▁regular	-10.5143
▁worth	-10.5147
▁Pri	-10.5148
rant	-10.515
▁Global	-10.5151
▁Front	-10.5151
▁Palestinian	-10.5152
▁Ereignisse	-10.5152
▁Kooperation	-10.5153
book	-10.5157
ji	-10.5157
pat	-10.5157
▁finanziellen	-10.5157
▁Power	-10.5162
pack	-10.5163
▁31	-10.5167
▁Sc	-10.5168
ava	-10.5169
▁unit	-10.517
▁peaceful	-10.517
row	-10.5171
▁followed	-10.5175
CE	-10.5175
▁Zunächst	-10.5176
▁Grundsatz	-10.5178
▁Banken	-10.5182
▁dank	-10.5182
▁cheap	-10.5189
▁neues	-10.5191
▁likely	-10.5192
▁estate	-10.5192
▁Forderung	-10.5196
▁destination	-10.52
▁actual	-10.5203
▁Regelung	-10.5207
▁gelangen	-10.5209
▁starke	-10.5211
▁http	-10.5212
▁Greece	-10.5212
IA	-10.5217
SE	-10.5217
nah	-10.5218
▁Rest	-10.5218
bot	-10.5219
mis	-10.522
▁Home	-10.5221
ici	-10.5223
▁Instrumente	-10.5231
▁son	-10.5231
▁Ä	-10.5232
Co	-10.5239
fel	-10.5241
making	-10.5241
▁north	-10.5241
systems	-10.5245
▁Gott	-10.5246
▁herzlich	-10.5248
mission	-10.525
▁grenz	-10.5251
▁dimension	-10.5251
schrift	-10.5255
▁freuen	-10.5256
struktur	-10.5258
text	-10.5259
▁founded	-10.526
▁ch	-10.5264
geht	-10.5265
zog	-10.5266
▁fallen	-10.5268
▁door	-10.5268
▁teilweise	-10.5273
▁Schaden	-10.5275
rist	-10.5276
ray	-10.5277
erweise	-10.5278
straße	-10.5284
▁stock	-10.5286
▁speziell	-10.5293
▁domestic	-10.5295
▁seem	-10.5304
▁Bel	-10.5307
▁absolute	-10.5307
▁improving	-10.5307
▁Dateien	-10.5309
▁Lehr	-10.5317
▁lesen	-10.5317
▁Pakistan	-10.5319
▁spezielle	-10.532
▁Mat	-10.5325
▁animals	-10.5325
▁organ	-10.533
4-0	-10.5331
▁detail	-10.5335
▁Dis	-10.5336
ME	-10.5341
pper	-10.5341
Pla	-10.5342
ón	-10.5343
▁eingeführt	-10.5344
ball	-10.5344
lagen	-10.5344
▁globalen	-10.5346
▁Dollar	-10.5349
▁pension	-10.5352
▁Ausstellung	-10.5353
stoff	-10.5353
▁Amerika	-10.5354
▁Brussels	-10.5356
▁vermeiden	-10.5356
▁mm	-10.5359
▁went	-10.5367
▁Street	-10.5368
”.	-10.5368
▁represents	-10.5374
▁Sol	-10.5377
▁programs	-10.5379
puls	-10.5383
▁Band	-10.5385
▁sicherlich	-10.5386
Ein	-10.5388
▁Straße	-10.539
▁zentrale	-10.5391
▁Wirkung	-10.5392
▁darstellen	-10.5393
▁wollte	-10.5394
▁Angriff	-10.5395
pu	-10.5399
▁legen	-10.5402
▁Europäer	-10.5404
▁Unfortunately	-10.5404
▁erhöhen	-10.5404
▁Ke	-10.5406
int	-10.5408
▁usually	-10.5409
dienste	-10.5409
OR	-10.5414
▁thousands	-10.5415
▁Großbritannien	-10.5416
san	-10.5424
träger	-10.5428
▁selected	-10.5428
▁jeweils	-10.5428
▁Ausland	-10.543
▁understanding	-10.5431
▁Stellen	-10.5434
back	-10.5438
▁Verwaltungs	-10.5439
▁metres	-10.5441
▁jederzeit	-10.5444
hält	-10.5445
▁mission	-10.5445
eller	-10.5447
denken	-10.5448
▁fisheries	-10.5453
TE	-10.5453
▁betonen	-10.5454
▁booking	-10.5455
▁gekommen	-10.5455
▁handeln	-10.5456
▁Kenntnis	-10.5464
▁promoting	-10.5465
phrase	-10.5465
dal	-10.5466
▁erfolgen	-10.5469
erei	-10.5471
▁Fla	-10.5473
▁Once	-10.5475
▁formal	-10.5476
▁32	-10.5478
fest	-10.5485
=	-10.5487
▁earlier	-10.5489
▁difficulties	-10.5492
nte	-10.5496
▁Gewinn	-10.5498
▁Pol	-10.5498
▁rot	-10.5499
▁applies	-10.5502
▁Bay	-10.5504
▁Che	-10.5504
▁sufficient	-10.5504
reif	-10.5506
▁risks	-10.5506
▁closely	-10.5507
▁seven	-10.5508
▁Eis	-10.5509
gie	-10.5509
▁listed	-10.5511
▁coordination	-10.5514
▁erzielen	-10.5514
▁früher	-10.5514
▁definition	-10.5514
▁Bal	-10.5515
▁freue	-10.5517
stra	-10.5518
▁Scha	-10.552
wahl	-10.5522
▁Polen	-10.5525
▁derartige	-10.5526
▁Griechenland	-10.5526
▁Eigen	-10.5527
▁attractive	-10.5527
app	-10.5532
▁Einrichtungen	-10.5537
▁Forum	-10.5538
management	-10.554
▁aspect	-10.5543
▁beziehen	-10.5543
▁gern	-10.5546
▁Netz	-10.5547
▁discover	-10.5549
▁connect	-10.555
▁entweder	-10.5551
nach	-10.5552
▁Prüfung	-10.5555
▁load	-10.5555
länder	-10.5556
dra	-10.556
pha	-10.556
▁Funktionen	-10.5561
free	-10.5563
▁Klimawandel	-10.5563
▁fail	-10.5566
▁Korea	-10.5568
▁race	-10.5569
▁persönlich	-10.5572
fle	-10.5572
▁fund	-10.5572
▁Ferien	-10.5575
▁square	-10.5575
▁ausreichend	-10.5577
▁authority	-10.5578
▁desire	-10.558
▁Tür	-10.558
ase	-10.5581
▁duty	-10.5582
▁presence	-10.5588
▁Madrid	-10.5588
fort	-10.5589
▁Why	-10.559
▁Absatz	-10.5592
▁Bush	-10.5592
▁camp	-10.5595
▁Pflicht	-10.56
year	-10.5605
ved	-10.5606
west	-10.5606
▁vorher	-10.5606
sprogramm	-10.5607
▁Les	-10.5609
▁wa	-10.5611
▁guidelines	-10.5613
▁verfolgt	-10.5613
▁Media	-10.5614
▁Dar	-10.5619
н	-10.5624
▁Name	-10.5627
▁darunter	-10.5638
▁format	-10.5641
▁Völker	-10.5644
lock	-10.5644
gebiet	-10.5645
▁bestätigt	-10.565
▁garantiert	-10.565
▁Boot	-10.5655
▁Reaktion	-10.5656
▁zone	-10.5656
▁Fan	-10.566
▁Gesetzgebung	-10.5662
▁Data	-10.5662
▁Worte	-10.5662
▁45	-10.5664
trieb	-10.5666
▁freien	-10.5667
▁stattfinden	-10.5675
PA	-10.5677
▁Initiativen	-10.5677
▁User	-10.5683
▁Belarus	-10.5687
▁combination	-10.5687
▁match	-10.5688
▁lernen	-10.5688
▁Trade	-10.5689
▁nachhaltige	-10.5691
▁Webseite	-10.5692
▁Einigung	-10.5692
▁Kindern	-10.5694
hlen	-10.5694
▁extend	-10.5695
▁marketing	-10.5696
aging	-10.5699
ille	-10.5701
▁supports	-10.5701
ident	-10.5704
▁budgetary	-10.5705
▁kommenden	-10.5705
▁Nutzer	-10.5706
cc	-10.571
▁Fonds	-10.5712
▁difference	-10.5713
arten	-10.5715
▁fand	-10.5723
▁Health	-10.5724
▁Bestandteil	-10.5726
paket	-10.5726
▁relax	-10.5729
▁400	-10.5732
▁shops	-10.5733
ius	-10.5735
▁occur	-10.5736
▁Because	-10.5737
▁übernachten	-10.5737
gegen	-10.5737
CH	-10.5739
versorgung	-10.5742
▁Day	-10.5742
ska	-10.5745
▁stimme	-10.5746
▁Waffen	-10.575
▁lösen	-10.5753
▁immigration	-10.5755
aut	-10.5757
ech	-10.5758
▁Wind	-10.5759
▁Regulation	-10.5762
▁Set	-10.5763
ators	-10.5764
gegangen	-10.5765
tical	-10.5765
zeiten	-10.5767
▁Termin	-10.5768
Li	-10.577
▁advanced	-10.5771
–	-10.5772
▁Status	-10.5773
▁Vielfalt	-10.5775
▁Universität	-10.5775
wagen	-10.5781
lb	-10.5783
▁6.	-10.5784
35	-10.5786
vel	-10.5789
▁hour	-10.5789
▁Systeme	-10.5789
zone	-10.5795
▁Stimme	-10.5797
▁hoffen	-10.5799
▁fla	-10.5799
tr	-10.5799
▁Apartments	-10.5799
▁Mari	-10.58
▁PHP	-10.58
ationen	-10.5809
fangen	-10.5811
cle	-10.5812
▁wild	-10.5813
ähr	-10.5815
▁couple	-10.5818
MS	-10.5819
▁positiv	-10.5819
uf	-10.5821
box	-10.5822
▁flexibility	-10.5825
▁offensichtlich	-10.5825
▁himself	-10.5825
karte	-10.5825
▁facing	-10.5826
▁informed	-10.5826
▁Mini	-10.5829
▁won	-10.583
cho	-10.5831
▁Guest	-10.5832
▁Kurz	-10.5833
▁propose	-10.5835
▁König	-10.5837
▁Gefühl	-10.5838
▁gewährleistet	-10.5838
unk	-10.584
fonds	-10.5842
▁Patent	-10.5845
▁contain	-10.5848
▁sinnvoll	-10.585
▁intervention	-10.5852
ras	-10.5853
▁Romania	-10.5853
▁lift	-10.5854
▁Don	-10.5857
ziehen	-10.5857
▁Richtlinien	-10.5859
▁Kla	-10.5859
▁pl	-10.5859
▁7.	-10.5863
▁Februar	-10.5866
leitung	-10.5866
▁Schi	-10.5869
▁Environment	-10.5876
▁Achtung	-10.5878
Al	-10.5878
▁dagegen	-10.5879
▁alter	-10.588
▁unge	-10.588
dia	-10.5881
ativ	-10.5881
▁Betrieb	-10.5883
yn	-10.5886
▁interface	-10.5889
▁Zudem	-10.5891
▁acc	-10.5895
tat	-10.5896
▁Dienstleistung	-10.5899
▁presidency	-10.5901
▁tradition	-10.591
▁generally	-10.5914
▁preparation	-10.5914
▁spot	-10.5915
▁button	-10.5916
▁Standards	-10.5916
▁experts	-10.5916
ama	-10.5918
▁Top	-10.5919
bon	-10.5922
▁Hol	-10.5925
träge	-10.5934
▁playing	-10.5934
▁Arbeiten	-10.5935
▁Sinn	-10.5935
führer	-10.5939
alität	-10.5939
▁gefährlich	-10.594
▁speaking	-10.5943
▁says	-10.5944
▁phase	-10.5946
▁entirely	-10.5947
▁Option	-10.5951
▁Hamburg	-10.5953
▁architecture	-10.5953
▁Saint	-10.5953
▁competitiveness	-10.5954
hang	-10.5959
▁mar	-10.5961
▁Sonnen	-10.5963
▁rock	-10.5964
▁Association	-10.5965
rot	-10.5976
uff	-10.5981
▁Signal	-10.5982
▁hands	-10.5988
▁arrival	-10.5991
▁Irland	-10.5991
▁conduct	-10.6001
▁va	-10.6002
▁Entwurf	-10.6004
▁coffee	-10.6004
▁initial	-10.6007
▁Ruhe	-10.6008
▁Via	-10.6009
▁conclude	-10.6011
äch	-10.6015
▁appeal	-10.6017
card	-10.602
▁Standort	-10.6021
bil	-10.6023
▁Gebieten	-10.6024
ax	-10.6026
56	-10.6028
23	-10.6029
▁Deutsche	-10.6029
▁trägt	-10.603
▁easier	-10.603
▁erscheint	-10.603
▁expression	-10.603
▁bodies	-10.603
▁outcome	-10.603
▁Absicht	-10.6033
▁considerable	-10.6037
▁Teile	-10.604
▁houses	-10.6041
▁Veränderungen	-10.6044
▁Grundsätze	-10.6044
▁Indien	-10.6046
▁lokalen	-10.6049
loc	-10.6053
▁wären	-10.6053
▁science	-10.6055
▁Verpflichtung	-10.6059
▁Private	-10.606
▁Seine	-10.6067
▁Abschließend	-10.6068
▁Herstellung	-10.6069
▁gave	-10.6069
ico	-10.6071
ona	-10.6071
▁Büro	-10.6073
▁por	-10.6074
▁lu	-10.6076
▁Bern	-10.6081
▁wenigen	-10.6081
▁optimal	-10.6086
▁Kal	-10.6087
▁ahead	-10.6088
▁Anteil	-10.6089
bank	-10.6092
nden	-10.6093
▁Elemente	-10.6093
▁paragraph	-10.6095
▁seriously	-10.6096
▁Lizenz	-10.6096
akt	-10.6097
▁Schweiz	-10.6099
▁Beweis	-10.61
qual	-10.6104
richtlinie	-10.6105
▁Leider	-10.611
sabkommen	-10.6112
ön	-10.6116
▁claim	-10.6118
▁sell	-10.6118
▁financing	-10.6118
▁news	-10.6119
▁Militär	-10.612
▁Switzerland	-10.612
▁Hall	-10.6124
▁African	-10.6125
ole	-10.6125
ING	-10.6127
▁Rooms	-10.6133
▁Beteiligung	-10.6133
▁Original	-10.6133
▁Arten	-10.6133
point	-10.6138
▁stone	-10.6138
▁Poland	-10.6139
organisation	-10.6139
ban	-10.6141
ete	-10.6147
fallen	-10.6148
▁Export	-10.6148
▁bra	-10.615
▁Produkten	-10.6151
▁items	-10.6152
▁Organ	-10.6152
ude	-10.6155
führen	-10.6156
▁EADS	-10.616
▁Wissen	-10.616
▁näher	-10.616
fern	-10.6161
ose	-10.6162
▁Presse	-10.6164
▁welcher	-10.6167
SL	-10.6167
cial	-10.6169
▁win	-10.6171
▁aufmerksam	-10.6173
▁Ol	-10.6174
urs	-10.6177
So	-10.6183
▁defined	-10.6185
▁cap	-10.6185
▁geöffnet	-10.6186
Po	-10.6189
66	-10.6193
▁Lake	-10.6193
▁boat	-10.6197
▁politics	-10.6199
▁verloren	-10.6199
legt	-10.6199
▁Klicken	-10.6201
▁erforderlichen	-10.6202
▁schön	-10.621
ua	-10.6211
uv	-10.6211
▁middle	-10.6212
▁Poker	-10.6214
Mo	-10.6215
▁mid	-10.6218
▁coast	-10.6218
▁told	-10.6219
kar	-10.6222
▁miss	-10.6224
▁hören	-10.6228
gesetz	-10.6232
stabil	-10.6232
▁Vereinte	-10.6233
▁object	-10.6235
zugeben	-10.6235
▁Grenz	-10.6238
▁average	-10.6238
▁Are	-10.624
▁Kommunikation	-10.6241
▁adoption	-10.6243
OL	-10.6245
▁Prinzip	-10.625
▁reducing	-10.6252
▁Jetzt	-10.6252
ob	-10.6255
cio	-10.6256
rö	-10.6256
fu	-10.6257
▁feeling	-10.626
▁Work	-10.626
AD	-10.626
new	-10.6264
▁fixed	-10.6264
▁diskutieren	-10.6265
▁license	-10.6265
▁Tal	-10.6271
▁leader	-10.6273
▁Cre	-10.6277
▁betrachtet	-10.6278
▁competence	-10.6278
▁anyone	-10.6279
▁Prime	-10.6283
stück	-10.6285
▁fi	-10.6287
EA	-10.6287
▁reasonable	-10.6287
▁Van	-10.629
▁Cla	-10.6291
Lo	-10.6292
▁Tourismus	-10.6294
▁Tele	-10.6296
▁meetings	-10.6296
problem	-10.6301
▁assist	-10.6303
ckt	-10.6305
▁stärken	-10.6305
▁Straf	-10.6308
▁beds	-10.6308
▁unternehmen	-10.6312
lip	-10.6314
▁IP	-10.6314
▁relativ	-10.6315
möglichkeiten	-10.6316
▁Niveau	-10.6318
▁television	-10.6318
FI	-10.6318
Sa	-10.632
ash	-10.6321
▁buffet	-10.6321
cas	-10.6322
▁Agrar	-10.633
▁humanitarian	-10.6331
▁opposition	-10.6332
▁Beschreibung	-10.6332
quality	-10.6333
▁components	-10.6335
▁einfache	-10.634
▁Formen	-10.6341
anlage	-10.6344
▁Brüssel	-10.6344
▁Welche	-10.6345
▁studies	-10.6345
▁Königreich	-10.6345
2.	-10.6348
arm	-10.6349
▁wants	-10.635
▁zusätzlich	-10.635
Innen	-10.6351
▁Ton	-10.6352
Kon	-10.6355
▁Trek	-10.6355
▁persönliche	-10.6355
mul	-10.6359
64	-10.636
▁Alt	-10.636
▁Tages	-10.6362
▁supporting	-10.6371
▁informieren	-10.6375
liste	-10.6377
ied	-10.6384
▁Santa	-10.6386
▁verfolgen	-10.6387
▁Abgeordnete	-10.6388
▁Essen	-10.6388
UR	-10.6389
staat	-10.6392
▁extrem	-10.6394
▁erleben	-10.6397
▁Dennoch	-10.6398
▁Wieder	-10.6402
▁urge	-10.641
▁operations	-10.641
▁stable	-10.6411
ütz	-10.6411
▁umfasst	-10.6411
▁experienced	-10.6416
▁Sorge	-10.6416
▁Mc	-10.6417
▁Ac	-10.6417
▁Any	-10.6418
▁Leistungen	-10.6419
▁erklären	-10.6421
aff	-10.6423
▁besuchen	-10.6424
▁Dimension	-10.6425
▁Update	-10.6425
produktion	-10.6427
▁deutsche	-10.6428
▁vehicles	-10.6433
cket	-10.6434
▁bu	-10.6439
▁models	-10.644
nov	-10.6442
▁Market	-10.6445
▁Jahrhunderts	-10.6449
▁Berichte	-10.6451
dro	-10.6455
▁profitieren	-10.6456
▁Forderungen	-10.6456
▁carefully	-10.6458
▁Shi	-10.6458
▁announced	-10.6458
▁hält	-10.6459
▁Miss	-10.6461
▁Gran	-10.6463
dauer	-10.6463
essen	-10.6464
▁hingewiesen	-10.6465
▁territory	-10.6465
▁enormous	-10.6465
▁dennoch	-10.6467
gna	-10.6468
▁finding	-10.6468
zz	-10.6469
▁Bedürfnisse	-10.6475
0,000	-10.6478
▁rent	-10.6478
▁dynamic	-10.6479
▁Regional	-10.648
▁plants	-10.648
▁Win	-10.648
▁producers	-10.648
▁chi	-10.6481
▁Verträge	-10.6482
tig	-10.6482
▁Men	-10.6483
▁vision	-10.6484
▁eingehen	-10.6492
▁begrenzt	-10.6493
▁blue	-10.6493
▁Lesung	-10.6493
▁Verkehr	-10.6493
▁Check	-10.6501
▁übertragen	-10.6502
▁ideale	-10.6504
▁Zugriff	-10.6507
▁nearby	-10.6507
tour	-10.6508
dorf	-10.6509
rig	-10.6511
lam	-10.6515
gänge	-10.6517
▁Liberal	-10.6519
bildung	-10.6519
▁Pra	-10.6522
gh	-10.6525
win	-10.6525
▁spring	-10.6528
erung	-10.6529
▁Breakfast	-10.6533
▁length	-10.6533
▁Stück	-10.6533
2)	-10.6538
▁zufrieden	-10.6541
European	-10.6541
▁calling	-10.6541
▁Kirche	-10.6542
grund	-10.6545
▁Flexibilität	-10.6546
▁availability	-10.6546
▁konzentrieren	-10.6546
▁agencies	-10.6546
▁consumption	-10.6547
▁allowing	-10.6547
▁Hauses	-10.6547
▁organization	-10.6552
▁historische	-10.6553
henswürdigkeiten	-10.656
▁ancient	-10.656
▁Unterkunft	-10.656
▁signed	-10.6561
rio	-10.657
▁adapt	-10.6573
mä	-10.6576
▁Einhaltung	-10.6577
▁erstellen	-10.6579
▁Untersuchung	-10.6582
▁myself	-10.6587
▁Black	-10.6588
▁spent	-10.659
cer	-10.6591
fälle	-10.6595
▁Bill	-10.6596
▁rec	-10.6598
sprechen	-10.66
▁concrete	-10.6601
▁Vienna	-10.6601
▁klicken	-10.6601
ppen	-10.6601
pression	-10.6602
EG	-10.6602
▁Kredit	-10.6604
▁fragen	-10.6604
hne	-10.6606
▁Angaben	-10.6607
▁thinking	-10.6607
▁mail	-10.661
▁skills	-10.661
▁Vielen	-10.6615
▁Flo	-10.6616
▁streng	-10.6616
▁Note	-10.6618
▁begann	-10.6619
▁discrimination	-10.662
▁cool	-10.662
▁zunehmend	-10.6621
PE	-10.6624
lli	-10.6625
▁Einheit	-10.6626
programme	-10.6627
▁adequate	-10.6628
▁niemand	-10.6628
▁nennen	-10.6629
zustellen	-10.6631
▁Budget	-10.6635
zt	-10.6637
▁erhält	-10.6638
▁presentation	-10.6638
▁factor	-10.6641
▁Polizei	-10.6642
▁informiert	-10.6644
namen	-10.6644
▁2011	-10.6645
▁Wissenschaft	-10.6647
▁acht	-10.6652
▁breite	-10.6653
ear	-10.6654
▁shop	-10.6655
▁Live	-10.6655
▁Eigentum	-10.6656
SS	-10.6657
une	-10.6658
sid	-10.666
uit	-10.6664
▁animal	-10.6677
▁Gemeinsam	-10.668
ID	-10.6682
▁Em	-10.6683
▁Gleichzeitig	-10.6683
▁defence	-10.6684
▁Drogen	-10.6684
günstig	-10.6686
▁eight	-10.6689
▁Warum	-10.669
▁Ter	-10.6695
▁scale	-10.6696
▁beschäftigt	-10.6697
tsch	-10.6698
▁Rome	-10.6701
PS	-10.6702
▁institution	-10.6704
▁Stärkung	-10.6711
▁wer	-10.6711
▁implementing	-10.6712
▁beginnt	-10.6713
▁radio	-10.6714
▁anders	-10.6714
▁released	-10.6715
ij	-10.6723
wn	-10.6724
▁diskutiert	-10.6725
▁überprüfen	-10.6725
▁temperature	-10.6726
▁copy	-10.6726
▁Mus	-10.6727
wald	-10.6733
Geschäftsordnung	-10.6736
licht	-10.6739
▁Dorf	-10.6749
▁schneller	-10.6751
▁danger	-10.6751
▁Justice	-10.6753
▁geplant	-10.6755
▁halb	-10.6755
▁genuine	-10.6757
▁Uni	-10.6759
▁root	-10.6765
▁Nachfolgend	-10.6766
ausschuss	-10.6767
down	-10.677
For	-10.677
▁hit	-10.6771
▁).	-10.6774
ically	-10.6784
ENT	-10.6789
▁launch	-10.6791
▁buildings	-10.6793
▁truly	-10.6794
▁England	-10.6795
▁Sil	-10.6797
▁slow	-10.6799
▁Wettbewerbs	-10.68
▁einiger	-10.68
sport	-10.6803
▁Tod	-10.6804
GA	-10.6805
▁Ideen	-10.6806
igh	-10.6806
▁Bestellung	-10.6807
▁greatest	-10.6807
▁Kingdom	-10.6808
▁glass	-10.681
▁Prioritäten	-10.681
▁amerikanischen	-10.6811
haltung	-10.6811
▁associated	-10.6812
mos	-10.6818
▁Digital	-10.6819
▁Umfang	-10.6823
leb	-10.6823
▁pen	-10.6825
▁shared	-10.6825
lea	-10.6825
▁Gut	-10.683
▁freie	-10.6835
wide	-10.6835
▁reflect	-10.6836
▁evidence	-10.6836
▁regret	-10.6836
lern	-10.6838
▁Marken	-10.684
▁hart	-10.684
▁Haut	-10.6842
▁connected	-10.6843
▁Latin	-10.6843
▁Report	-10.6844
▁happened	-10.6844
ave	-10.6847
leistung	-10.6847
▁practices	-10.6854
▁Realität	-10.6854
▁immediate	-10.6854
netz	-10.6855
with	-10.6862
▁jemand	-10.6864
ía	-10.6866
▁kulturellen	-10.6866
▁foundation	-10.6867
▁sum	-10.6868
▁interpret	-10.687
▁route	-10.6876
plätze	-10.6876
▁possibilities	-10.6878
rid	-10.6879
▁kulturelle	-10.6884
54	-10.6885
iber	-10.6885
▁votes	-10.6889
▁möglichst	-10.6889
▁Städte	-10.6891
CO	-10.6892
▁beauty	-10.6892
▁Veranstaltung	-10.6893
AC	-10.6895
▁Regime	-10.6895
lay	-10.6896
▁Justiz	-10.6898
▁Bri	-10.6899
amt	-10.69
wir	-10.6901
▁Strom	-10.6903
▁meist	-10.6909
▁improvement	-10.691
▁Firstly	-10.6911
▁continued	-10.6914
▁machines	-10.6914
▁Sha	-10.6915
▁monetary	-10.692
▁urban	-10.692
▁kept	-10.692
▁Greek	-10.6921
▁membership	-10.6921
▁Aspekt	-10.6923
▁Resort	-10.6925
▁consultation	-10.6928
▁Mil	-10.6928
ula	-10.693
▁recognise	-10.693
▁SA	-10.6931
▁Mindest	-10.6934
▁impossible	-10.6934
▁ernst	-10.6935
▁rep	-10.6935
ova	-10.6937
▁bio	-10.6939
▁confirm	-10.6941
▁dritten	-10.6943
▁Fort	-10.6948
▁write	-10.6948
▁register	-10.6948
▁Michael	-10.6949
▁Nevertheless	-10.6949
▁satellite	-10.6949
▁Irish	-10.6949
▁scheme	-10.695
▁übrigen	-10.6951
▁quick	-10.6951
▁beaches	-10.6951
▁Zwischen	-10.6951
▁3-	-10.6952
▁registered	-10.6952
▁richtigen	-10.6958
▁generation	-10.6959
ori	-10.696
▁Priorität	-10.696
▁kleiner	-10.6961
▁Va	-10.6962
▁collect	-10.6963
▁versch	-10.6964
merk	-10.6964
▁attractions	-10.6966
▁taste	-10.697
▁Hel	-10.6979
ford	-10.698
Aus	-10.6982
site	-10.6988
▁described	-10.699
▁net	-10.6991
▁Datenbank	-10.6991
▁recognition	-10.6991
▁Other	-10.6991
▁window	-10.6991
▁Zeiten	-10.6993
▁Cas	-10.6995
modell	-10.6998
▁appears	-10.6998
▁article	-10.6998
www	-10.7
*	-10.7
▁verursacht	-10.7005
▁pleasure	-10.7005
wachsen	-10.7006
▁Globalisierung	-10.7006
▁golf	-10.7008
▁Schwerpunkt	-10.7009
top	-10.7012
▁sale	-10.7015
cept	-10.7017
▁Innen	-10.7017
▁differences	-10.7019
49	-10.7019
▁expenditure	-10.702
▁geschehen	-10.702
▁safeguard	-10.702
▁gegenwärtig	-10.702
▁developments	-10.7023
▁fordert	-10.7025
rust	-10.7029
Arbeitslosigkeit	-10.7032
▁dedicated	-10.7034
▁beinhaltet	-10.7034
▁Verlust	-10.7035
▁abgeschlossen	-10.7035
▁roll	-10.7038
▁failed	-10.704
▁fertig	-10.704
richtung	-10.7042
▁mistake	-10.7048
▁aims	-10.7048
▁Überprüfung	-10.7049
▁1994	-10.705
▁24-	-10.705
▁PDF	-10.705
▁feststellen	-10.7051
medi	-10.7053
▁Patienten	-10.7054
ura	-10.7054
▁miteinander	-10.7058
ami	-10.7058
DS	-10.7061
▁pictures	-10.7062
▁Verbrechen	-10.7065
als	-10.7068
band	-10.7069
▁Main	-10.707
▁Cu	-10.7076
▁Mont	-10.7077
▁Treffen	-10.7077
▁verlassen	-10.7081
tätigkeit	-10.7083
▁structures	-10.7085
▁gewisse	-10.7085
▁closer	-10.7087
▁ausgewählt	-10.7091
▁Kom	-10.7094
▁Rand	-10.7096
ruh	-10.7098
▁Radio	-10.7104
▁Democrats	-10.7105
▁Foundation	-10.7105
▁economies	-10.7105
▁russische	-10.7106
zza	-10.7106
▁Politiker	-10.7108
▁entstanden	-10.7111
▁convinced	-10.7112
▁metal	-10.7113
wort	-10.7114
▁statements	-10.7115
▁meters	-10.7116
version	-10.7117
▁Jugend	-10.712
▁Ur	-10.7121
▁ergeben	-10.7122
▁THE	-10.7126
load	-10.7128
▁weiterer	-10.713
59	-10.713
▁laut	-10.713
▁attitude	-10.7134
▁fit	-10.7135
▁durchaus	-10.7135
▁Anlagen	-10.7136
▁wishes	-10.7137
ates	-10.7139
lement	-10.7139
▁Meiner	-10.7141
▁Regelungen	-10.7141
teilung	-10.7143
ith	-10.7143
TI	-10.7149
TER	-10.7151
▁award	-10.7156
▁Buchung	-10.7157
rent	-10.7158
stellt	-10.7159
▁denken	-10.716
▁Zuständigkeit	-10.7163
▁Turkish	-10.7163
srecht	-10.7165
hab	-10.717
▁combined	-10.7173
▁weight	-10.7177
▁einsetzen	-10.7177
▁physical	-10.7178
▁Good	-10.7179
▁forest	-10.718
▁cards	-10.7185
▁Vorteil	-10.7186
▁Laufe	-10.7189
RS	-10.719
▁gestalten	-10.7193
streben	-10.7193
öl	-10.7194
ney	-10.7194
don	-10.7194
▁photograph	-10.7197
▁import	-10.72
▁Element	-10.7201
spar	-10.7202
▁intensive	-10.7204
▁entitled	-10.7207
▁Erde	-10.7209
▁Au	-10.7211
▁Liefer	-10.7217
▁Card	-10.7219
▁Speicher	-10.722
▁9.	-10.722
▁gegenwärtigen	-10.7221
▁tend	-10.7222
▁band	-10.7222
NE	-10.7222
▁maximal	-10.7223
fre	-10.7225
▁Sehr	-10.7232
▁unacceptable	-10.7236
▁insurance	-10.7236
ffe	-10.724
▁reservation	-10.7241
▁Weitere	-10.7242
▁höchste	-10.7243
▁counter	-10.7244
▁il	-10.7246
▁DE	-10.7248
falls	-10.7248
bedingungen	-10.7249
▁label	-10.725
▁gewinnen	-10.7251
▁Liebe	-10.7253
▁print	-10.7253
▁story	-10.7254
▁becomes	-10.7257
licher	-10.7257
hal	-10.726
▁Due	-10.7262
mel	-10.7264
▁Ordnung	-10.7265
▁Award	-10.7266
▁Gebiete	-10.7267
nimmt	-10.7268
▁minute	-10.7268
▁Mutter	-10.7269
▁Verhalten	-10.7271
▁Willen	-10.7273
öt	-10.7279
▁bildet	-10.728
▁unless	-10.728
▁Another	-10.7281
▁figures	-10.7282
▁strength	-10.7284
Tech	-10.7285
▁Israeli	-10.7286
▁core	-10.7292
2-	-10.7293
▁eröffnet	-10.7294
▁luxury	-10.7294
▁dangerous	-10.7295
▁unfortunately	-10.7297
▁Ser	-10.7297
▁hergestellt	-10.7298
▁Mu	-10.73
▁Ban	-10.73
rän	-10.7303
hor	-10.7306
lieb	-10.7306
mü	-10.7309
▁garantieren	-10.7309
▁Angesichts	-10.7311
▁unable	-10.7315
▁enables	-10.7319
▁Gesetze	-10.7321
▁akzeptiert	-10.7323
▁names	-10.7324
▁betroffen	-10.7324
▁politischer	-10.7328
▁Burg	-10.7329
▁urgent	-10.733
▁spending	-10.733
ifi	-10.7332
▁unto	-10.7335
sprache	-10.7336
▁tried	-10.7337
▁unterstütze	-10.7338
▁asylum	-10.7338
häuser	-10.7339
▁vorliegenden	-10.7345
▁anderes	-10.7346
▁wait	-10.7348
32	-10.7354
▁Fre	-10.7355
▁Institute	-10.7356
▁pla	-10.7356
zin	-10.7357
▁danach	-10.7357
prozess	-10.7359
▁charged	-10.736
▁volle	-10.7361
▁erheblich	-10.7365
▁korrekt	-10.7365
▁Training	-10.7368
▁parliamentary	-10.7368
qualität	-10.7368
▁aufge	-10.7371
schnitt	-10.7372
▁motor	-10.7372
▁rapid	-10.7373
schreiben	-10.7377
▁perform	-10.7378
▁dient	-10.7381
▁Flugzeug	-10.7383
▁verbundenen	-10.7394
▁Bedarf	-10.7397
▁Architektur	-10.7398
▁forced	-10.7398
▁festgestellt	-10.7399
▁belong	-10.74
▁Manager	-10.7402
roll	-10.7408
▁Under	-10.7412
▁Bulgaria	-10.7412
▁mutual	-10.7412
▁Landwirte	-10.7412
▁strongly	-10.7413
▁;	-10.7413
▁Wall	-10.7414
45	-10.7415
minute	-10.7415
▁praktisch	-10.7419
▁demonstrate	-10.7423
▁declaration	-10.7427
▁concert	-10.7428
Con	-10.7428
GB	-10.7428
▁reliable	-10.7428
▁Federal	-10.7429
▁surrounded	-10.7431
▁größeren	-10.7432
elf	-10.7438
▁intelligent	-10.7442
▁Summit	-10.7442
TS	-10.7443
ats	-10.7444
▁Fin	-10.7444
▁Head	-10.7447
▁rail	-10.7448
▁compared	-10.7448
▁hervorragende	-10.7455
Das	-10.7455
▁surrounding	-10.7456
gent	-10.7456
funktion	-10.7458
▁Mass	-10.746
▁betont	-10.746
dan	-10.7461
pir	-10.7463
▁Studie	-10.7463
▁packages	-10.7464
▁demokratische	-10.7468
▁Institution	-10.7471
▁schönen	-10.7472
▁prefer	-10.7473
▁sensitive	-10.7474
BA	-10.7475
▁devices	-10.7477
quer	-10.7477
▁individuals	-10.7479
▁voraus	-10.748
▁device	-10.7481
▁Brand	-10.7486
▁advice	-10.7486
▁verabschiedet	-10.7486
▁Tip	-10.7487
▁Sand	-10.7489
▁highlight	-10.7496
▁Meeres	-10.7497
▁saw	-10.7499
▁außerordentlich	-10.7501
▁hauptsächlich	-10.7501
ebene	-10.7502
alter	-10.7507
Bahn	-10.7509
▁Constitution	-10.751
politischen	-10.7514
▁Netherlands	-10.7516
▁sta	-10.7517
schicht	-10.7517
▁solve	-10.7518
Er	-10.752
räumen	-10.7523
▁exp	-10.7528
▁rechts	-10.7528
▁Gerichtshof	-10.7532
▁trading	-10.7533
▁Austrian	-10.7538
ida	-10.7541
punkte	-10.7543
▁listen	-10.7545
▁Kat	-10.7546
kü	-10.7547
AP	-10.7548
▁factors	-10.7548
▁Maße	-10.7551
▁update	-10.7553
▁lay	-10.7553
▁Islam	-10.756
▁Barroso	-10.7561
▁delegation	-10.7561
▁granted	-10.7562
griff	-10.7562
▁claims	-10.7567
▁Jeder	-10.7571
▁prove	-10.7572
▁relaxing	-10.7575
▁ambitious	-10.7576
▁MP	-10.7579
▁continues	-10.758
▁terrorist	-10.7584
▁continuing	-10.7586
▁zugänglich	-10.7592
col	-10.7593
af	-10.7594
▁tasks	-10.7594
tta	-10.7596
▁volume	-10.7597
▁Autor	-10.7603
▁candidate	-10.7604
▁solcher	-10.7604
▁establishing	-10.7604
▁River	-10.7605
MI	-10.7606
▁Altstadt	-10.7607
▁Obama	-10.7607
▁Special	-10.7607
▁background	-10.7607
tech	-10.7608
▁Back	-10.7609
mic	-10.7611
▁Leistungs	-10.7612
lim	-10.7617
▁betrachten	-10.7618
▁ci	-10.7619
▁dir	-10.762
▁completed	-10.7621
bach	-10.7622
▁Sprach	-10.7622
▁proportion	-10.7622
lution	-10.7622
lla	-10.7626
▁Garden	-10.7629
▁MA	-10.7632
table	-10.7632
▁visa	-10.7634
▁zahlen	-10.7636
▁auto	-10.7636
geschäft	-10.7636
▁complain	-10.7637
ora	-10.7638
▁moving	-10.7638
▁wahr	-10.764
“.	-10.7642
gemeinschaftlich	-10.7644
▁allgemein	-10.7644
▁entsprechen	-10.7645
typ	-10.7646
angebot	-10.7647
▁Ram	-10.7648
▁grow	-10.7649
ward	-10.7651
▁weapons	-10.7651
▁Kräfte	-10.7652
▁Foreign	-10.7652
▁fiscal	-10.7652
▁Cal	-10.7653
iß	-10.7654
▁Feld	-10.7657
dern	-10.7658
▁Book	-10.7658
▁französischen	-10.7661
RC	-10.7661
▁Support	-10.7667
▁advertising	-10.7667
▁deficit	-10.7667
▁parallel	-10.7667
▁flat	-10.7668
▁zuvor	-10.7669
▁globale	-10.7672
anda	-10.7675
▁Anlage	-10.7678
▁Kind	-10.7679
▁meaning	-10.768
▁Those	-10.7683
cies	-10.7683
▁Einwanderung	-10.7684
▁Ven	-10.7685
▁Stadtzentrum	-10.7685
▁depend	-10.7685
▁Cam	-10.7686
▁Schul	-10.7689
eth	-10.7692
▁mittels	-10.7694
▁repeat	-10.7695
gin	-10.7696
▁passed	-10.7703
▁Lord	-10.7711
▁sold	-10.7711
▁church	-10.7712
▁Einwohner	-10.7713
▁Stra	-10.7713
▁Aktion	-10.7713
▁Director	-10.7714
IL	-10.7717
▁attend	-10.7717
km	-10.7719
▁Ö	-10.7719
Sterne	-10.772
▁Beach	-10.7722
lassen	-10.7724
▁schnelle	-10.7729
▁artists	-10.773
▁endorse	-10.7731
▁Fahrzeug	-10.7731
▁Tisch	-10.7732
▁Hinweis	-10.7733
standard	-10.7737
ßt	-10.7738
▁Voraussetzungen	-10.7739
▁category	-10.7744
▁corporate	-10.7744
58	-10.7747
sign	-10.775
rom	-10.7751
CS	-10.7752
▁höher	-10.7753
chtig	-10.7755
▁jegliche	-10.7756
▁Delegation	-10.7758
▁maintenance	-10.7759
▁religious	-10.7759
▁Pen	-10.776
▁Betriebs	-10.7762
▁emphasis	-10.7764
▁Asyl	-10.7765
▁affect	-10.7765
▁extended	-10.7766
▁internationaler	-10.7767
▁einzelne	-10.7769
ough	-10.7774
▁journey	-10.7774
▁kürzlich	-10.7774
▁White	-10.7774
▁gelungen	-10.7774
▁besitzt	-10.7774
▁selten	-10.7775
schiff	-10.7776
kultur	-10.778
▁une	-10.7783
▁insist	-10.7787
räume	-10.7788
bri	-10.7788
▁Verständnis	-10.779
▁storage	-10.779
▁Märkte	-10.7793
▁Drei	-10.7794
95	-10.7794
▁holidays	-10.7797
▁installed	-10.78
▁tut	-10.7803
▁Kamera	-10.7803
▁Maß	-10.7804
▁eingereicht	-10.7805
▁PPE	-10.7809
▁Anwendungen	-10.7811
▁guarantees	-10.7819
▁Diskriminierung	-10.7821
▁multilateral	-10.7821
▁disease	-10.7822
termin	-10.7823
icht	-10.7824
▁Yet	-10.7828
lav	-10.7833
▁Studien	-10.7835
▁Gebrauch	-10.7836
▁Kombination	-10.7836
▁extension	-10.7836
▁registration	-10.7836
▁changing	-10.7836
▁Sweden	-10.7836
▁Where	-10.7836
▁Fernseh	-10.7839
▁obvious	-10.7842
▁Worten	-10.7842
mus	-10.7843
▁Farb	-10.7845
▁Very	-10.7845
▁Empfehlungen	-10.7846
▁courses	-10.7849
és	-10.7849
▁Definition	-10.7851
▁memory	-10.7852
▁Royal	-10.7852
▁dream	-10.7852
▁daraus	-10.7855
Ex	-10.7856
ih	-10.7856
shop	-10.7857
▁Generation	-10.7857
▁Adresse	-10.7858
ctic	-10.7859
▁diverse	-10.786
Ka	-10.7862
ito	-10.7863
▁Karten	-10.7865
▁Unabhängigkeit	-10.7867
▁Ticket	-10.7867
▁Kontroll	-10.7868
EU	-10.7872
▁Volks	-10.7878
To	-10.7879
▁est	-10.7879
▁learning	-10.7879
▁photos	-10.788
von	-10.7881
▁obligations	-10.7882
gio	-10.7882
▁neither	-10.7883
▁{{	-10.7883
▁judge	-10.7883
▁USB	-10.7884
▁Maria	-10.7891
▁rightly	-10.7896
▁höhere	-10.7898
▁extreme	-10.7898
▁sorgfältig	-10.7898
▁burden	-10.7898
▁hall	-10.7898
▁contrary	-10.7899
▁asking	-10.7902
nik	-10.7904
▁chosen	-10.7907
▁teil	-10.7908
▁secret	-10.7914
▁Robert	-10.7917
▁erfordert	-10.7917
▁Glas	-10.792
isse	-10.792
▁installiert	-10.7921
ima	-10.7921
▁feed	-10.7921
▁remove	-10.7926
▁Verletzung	-10.7929
▁facilitate	-10.7929
▁vollkommen	-10.7932
▁Vom	-10.7934
▁wesentlichen	-10.7937
▁Mark	-10.7937
▁überall	-10.7939
▁chemical	-10.7945
▁agency	-10.7945
▁beliebt	-10.7947
handlung	-10.7949
57	-10.7952
▁ni	-10.7953
stieg	-10.7953
freiheit	-10.7954
▁perfectly	-10.7957
▁organised	-10.7958
▁Erklärungen	-10.7962
▁speziellen	-10.7963
NT	-10.7965
▁Neue	-10.7971
▁schlecht	-10.7972
projekt	-10.7975
▁pour	-10.7976
▁movie	-10.7977
kette	-10.7978
rest	-10.7983
▁Blog	-10.7983
39	-10.7984
▁19.	-10.7985
▁Übereinkommen	-10.7986
▁Marketing	-10.7988
▁colour	-10.7991
Star	-10.7991
steuer	-10.7998
▁numbers	-10.7998
▁Read	-10.8001
▁21.	-10.8003
▁assess	-10.8003
▁Agentur	-10.8004
▁Nor	-10.8006
bli	-10.8006
geb	-10.8007
▁Beihilfen	-10.8009
▁protest	-10.8011
▁Thus	-10.8014
▁Klimaanlage	-10.8014
▁Planung	-10.8018
▁Jede	-10.8019
▁Einkommen	-10.8019
üt	-10.802
zweck	-10.8023
▁wonder	-10.8023
26	-10.8027
▁vehicle	-10.8029
▁specialist	-10.8029
cke	-10.803
▁Inc	-10.8031
▁constantly	-10.8032
▁profit	-10.8035
▁abuse	-10.8036
änderung	-10.8036
▁grundsätzlich	-10.8039
▁Kontinent	-10.8039
▁Englisch	-10.8039
▁Sun	-10.8041
▁election	-10.8046
▁Audio	-10.8048
▁Island	-10.8049
▁custom	-10.8052
▁Links	-10.8054
▁falsch	-10.8055
▁Arbeitsmarkt	-10.8057
▁Zoll	-10.8058
smöglichkeiten	-10.8061
▁approximately	-10.8062
▁Lager	-10.8067
ott	-10.807
▁Koordinierung	-10.8071
▁wealth	-10.8071
▁species	-10.8071
fass	-10.8072
▁Theater	-10.8074
▁Einkaufs	-10.8074
▁Para	-10.8074
▁conclusions	-10.8075
▁Zustand	-10.8076
▁einzigartige	-10.8076
”,	-10.8078
flo	-10.8081
grenzen	-10.8082
treffen	-10.8082
▁wirksam	-10.8083
%	-10.8089
Mi	-10.8093
▁Pool	-10.8094
wen	-10.8094
▁Fotos	-10.8094
▁Eindruck	-10.8095
▁Fern	-10.8097
stände	-10.81
▁Geräte	-10.8101
▁identify	-10.8103
▁andererseits	-10.8103
▁zählen	-10.8103
▁Player	-10.8104
▁Med	-10.8106
▁bekannte	-10.8109
▁wage	-10.8109
▁equality	-10.8111
getreten	-10.8115
▁wichtigste	-10.8115
▁Format	-10.8118
▁präsentiert	-10.8119
▁aircraft	-10.8119
▁vorgeschlagenen	-10.8122
▁totally	-10.8123
▁III	-10.8123
▁Syn	-10.8123
CC	-10.8124
lat	-10.8125
()	-10.8126
ery	-10.8127
▁Gemeinsame	-10.813
▁Aktionen	-10.813
▁Grad	-10.8131
▁biggest	-10.8135
▁junge	-10.8136
einheit	-10.8136
▁Fluss	-10.8137
▁emphasise	-10.814
methode	-10.8142
▁prevention	-10.8143
▁deposit	-10.8146
▁Beim	-10.8146
▁prepare	-10.8148
cks	-10.815
▁interessiert	-10.815
▁teilnehmen	-10.8151
▁Fenster	-10.8151
▁Gegensatz	-10.8151
olo	-10.8152
▁Two	-10.8157
86	-10.8159
▁balanced	-10.8165
▁beachten	-10.8166
▁Energy	-10.8166
▁Alliance	-10.8166
▁exception	-10.8167
▁Palace	-10.8167
ielzahl	-10.8168
BC	-10.8169
upp	-10.817
ée	-10.8171
pflicht	-10.8171
▁Rom	-10.8175
macht	-10.8176
▁retain	-10.8177
material	-10.8177
▁Sk	-10.8181
▁Erhöhung	-10.8182
▁chair	-10.8184
▁honourable	-10.8184
bind	-10.8186
unt	-10.8188
▁guaranteed	-10.8189
▁langen	-10.8191
68	-10.8192
▁Gericht	-10.8193
▁jüngsten	-10.8198
▁Reich	-10.8198
▁Croatia	-10.8198
▁Freude	-10.8199
▁Problemen	-10.82
CI	-10.8203
IE	-10.8203
phi	-10.8205
33	-10.8206
▁effektiv	-10.8207
▁gehalten	-10.8207
▁Ausnahme	-10.8209
stellungen	-10.8209
▁Voll	-10.821
ente	-10.8213
▁britischen	-10.8214
▁Experten	-10.8214
▁multiple	-10.8215
▁treten	-10.8219
staaten	-10.822
bed	-10.8224
tem	-10.8227
una	-10.8229
▁planned	-10.8231
▁Garantie	-10.8237
▁Mensch	-10.8243
▁Gl	-10.8243
▁Gedanken	-10.8244
▁finish	-10.8245
▁contemporary	-10.8246
▁Company	-10.8246
▁switch	-10.8247
▁elected	-10.8247
▁Schloss	-10.8247
▁mother	-10.8248
53	-10.8249
▁mountains	-10.825
rian	-10.8252
eva	-10.8253
▁Char	-10.8257
▁reject	-10.8262
-2	-10.8262
▁Risiken	-10.8263
▁geschieht	-10.8263
▁Agency	-10.8263
spect	-10.8264
▁settlement	-10.8265
▁chain	-10.8277
▁evaluation	-10.828
eten	-10.8283
▁Wald	-10.8287
▁Fischer	-10.829
▁Law	-10.8291
▁sage	-10.8291
▁zugleich	-10.8294
▁yesterday	-10.8295
▁Square	-10.8295
▁Fitness	-10.8295
▁Pension	-10.8296
▁collective	-10.8297
nummer	-10.8297
▁successfully	-10.8302
▁Westen	-10.8303
▁fe	-10.8304
▁pointed	-10.8307
▁Gegend	-10.8307
▁quarter	-10.8307
▁attacks	-10.8308
▁perfekt	-10.8309
py	-10.831
▁unternommen	-10.8311
▁freundlich	-10.8311
▁push	-10.8313
tier	-10.8313
pur	-10.8318
▁liberal	-10.832
▁8.	-10.832
SC	-10.8321
63	-10.8325
aker	-10.8327
responsibilities	-10.8327
▁governance	-10.8328
▁snow	-10.8329
▁Reg	-10.833
▁20.	-10.8331
▁vorschlagen	-10.8333
▁payments	-10.8334
▁Mir	-10.8337
▁Papier	-10.8342
▁Erholung	-10.8344
▁einverstanden	-10.8344
▁Liberalisierung	-10.8344
lines	-10.8344
▁verehrte	-10.8346
stoß	-10.8349
post	-10.8349
▁comply	-10.8352
1)	-10.8354
▁Los	-10.8361
right	-10.8361
kontrolle	-10.8361
▁1992	-10.8362
▁accessible	-10.8364
wind	-10.8365
▁warten	-10.8367
75	-10.837
aries	-10.8372
▁association	-10.8373
▁jungen	-10.8374
UN	-10.8376
▁Weiter	-10.8377
▁Formular	-10.8378
▁bewegen	-10.8378
▁Abschnitt	-10.8379
▁Teilnahme	-10.838
▁ECU	-10.8383
▁targets	-10.8383
▁department	-10.8393
▁Pin	-10.8394
▁David	-10.8395
rupt	-10.8396
▁Gre	-10.8397
▁legt	-10.8402
▁Berufs	-10.8404
▁sw	-10.8406
▁Dach	-10.8407
▁abgestimmt	-10.8409
▁invite	-10.8411
▁Vari	-10.8412
▁Beschäftigungs	-10.8413
▁positions	-10.8415
▁Pack	-10.8416
▁Jan	-10.8417
GE	-10.8421
88	-10.8422
29	-10.8422
▁ausgezeichnete	-10.8423
maschinen	-10.8424
▁betroffenen	-10.8424
▁blood	-10.8425
▁manchmal	-10.8425
▁kaufen	-10.8426
▁pack	-10.8433
Gr	-10.8434
▁Methode	-10.8434
stoffe	-10.8435
▁Act	-10.8438
▁argument	-10.8439
▁primarily	-10.8442
▁spricht	-10.8442
▁Jean	-10.8442
▁trend	-10.8445
▁regionalen	-10.8447
Ba	-10.8449
▁patients	-10.845
▁Direkt	-10.8451
▁Master	-10.8453
▁ce	-10.8454
▁audio	-10.8455
rc	-10.8455
machen	-10.8455
▁manufacturing	-10.8458
▁qualitativ	-10.8458
▁Both	-10.846
▁dinner	-10.846
▁Locate	-10.846
merely	-10.846
miss	-10.8462
▁ländlichen	-10.8463
ire	-10.8463
▁dealt	-10.8465
och	-10.8465
▁Camp	-10.8466
erie	-10.8467
ological	-10.8469
oy	-10.8469
▁explore	-10.8471
);	-10.8471
▁Dra	-10.8475
▁sorgt	-10.8475
chel	-10.8475
▁furnished	-10.8477
▁Herz	-10.848
fund	-10.8481
▁Unterschiede	-10.8483
dor	-10.8484
frist	-10.8485
▁consists	-10.8485
▁Alternative	-10.8489
gesetzt	-10.8489
▁basiert	-10.849
▁CA	-10.8491
▁definiert	-10.8491
organ	-10.8493
niveau	-10.8493
}}	-10.8498
flu	-10.85
27	-10.85
▁lose	-10.8502
▁overlook	-10.8505
▁disk	-10.8506
▁moral	-10.8507
▁experiment	-10.8508
▁independence	-10.8508
▁JavaScript	-10.8508
gerät	-10.8508
▁Hauptstadt	-10.8509
▁Akt	-10.8517
▁stands	-10.8519
▁grand	-10.852
▁Music	-10.8521
▁Austausch	-10.8525
▁Prodi	-10.8526
▁drawing	-10.8528
▁discussing	-10.8529
ines	-10.853
▁wesentliche	-10.853
▁Nachfrage	-10.853
▁Life	-10.853
▁treat	-10.8531
play	-10.8538
OP	-10.8538
▁dritte	-10.8539
▁Zentral	-10.8541
▁Ebenso	-10.8541
▁diesbezüglich	-10.8541
▁guter	-10.8541
▁laid	-10.8541
▁Show	-10.8543
▁outstanding	-10.8543
▁ID	-10.8544
▁contained	-10.8548
▁convenient	-10.8548
▁flight	-10.8549
61	-10.855
▁castle	-10.8551
▁alt	-10.8552
34	-10.8555
▁expensive	-10.8557
▁Konzert	-10.8558
▁George	-10.8558
▁Pla	-10.8559
▁seeking	-10.8559
▁Apartment	-10.856
kommt	-10.8561
▁profile	-10.8562
▁noise	-10.8565
▁Sim	-10.8566
▁drawn	-10.8571
▁skin	-10.8572
äre	-10.8573
▁produziert	-10.8574
maß	-10.8579
▁Bed	-10.8581
▁Spiele	-10.8584
rechts	-10.8586
organisationen	-10.8586
▁club	-10.8588
▁determine	-10.8589
▁addressed	-10.859
▁battle	-10.8591
CD	-10.8592
▁Schau	-10.8592
read	-10.8596
▁Sound	-10.8597
▁gesch	-10.8597
▁adjust	-10.8597
fect	-10.8598
▁traditionellen	-10.8598
▁cars	-10.8601
NL	-10.8601
laub	-10.8603
TO	-10.8605
▁arise	-10.8607
air	-10.8607
▁Church	-10.8607
▁gestaltet	-10.8608
▁Add	-10.8608
▁Modern	-10.8609
ency	-10.8609
cra	-10.861
▁capable	-10.8611
▁mer	-10.8612
▁glad	-10.8612
ieß	-10.8614
▁bedeuten	-10.8616
▁Männer	-10.8616
sbedingungen	-10.8616
▁grounds	-10.8616
▁mix	-10.8618
▁vorgenommen	-10.8619
▁regionale	-10.8619
FA	-10.862
28	-10.862
án	-10.8621
▁universal	-10.8624
▁Dutch	-10.8624
▁Muslim	-10.8624
smaßnahmen	-10.8627
▁pra	-10.8628
▁submit	-10.8629
▁Eastern	-10.8629
▁Mel	-10.863
▁participants	-10.8632
ches	-10.8633
LT	-10.8637
▁Chamber	-10.8641
▁Hälfte	-10.8641
suchen	-10.8641
▁mod	-10.8641
▁define	-10.8642
▁las	-10.8643
einrichtungen	-10.8645
sitz	-10.8647
kur	-10.8648
▁Immobilien	-10.8648
politische	-10.8653
▁Dublin	-10.8658
▁heavy	-10.8658
▁Nahrungsmittel	-10.8658
▁Haushaltsplan	-10.866
▁worse	-10.866
▁berechtigt	-10.866
▁drugs	-10.8663
▁berühmten	-10.8664
▁publication	-10.8664
▁master	-10.8664
▁Zug	-10.8666
mbre	-10.8666
▁gutes	-10.8667
kra	-10.867
▁empfehlen	-10.8673
▁enhance	-10.8673
▁inner	-10.8673
▁reagieren	-10.8675
▁beliebig	-10.8675
▁behandeln	-10.8675
▁willkommen	-10.868
betrieb	-10.8681
Ü	-10.8685
sky	-10.8688
via	-10.8689
▁Entwicklungen	-10.8689
▁Spezial	-10.869
▁decades	-10.8691
▁abhängig	-10.8694
▁Morgen	-10.8695
▁einzigen	-10.8696
▁Zahlen	-10.8697
▁dry	-10.8697
list	-10.8698
ky	-10.8698
▁48	-10.87
▁obviously	-10.8702
▁limits	-10.8703
ific	-10.8703
▁bringing	-10.8704
500	-10.8704
aktion	-10.8709
▁father	-10.871
▁Beiträge	-10.871
▁Kopf	-10.8711
▁industries	-10.8712
▁grant	-10.8714
musik	-10.8716
gut	-10.8717
▁Import	-10.8718
▁sand	-10.8718
▁steel	-10.8726
▁Bahnhof	-10.8726
▁Grunde	-10.8726
▁Grundrechte	-10.8728
▁mechanism	-10.8729
tragen	-10.8729
Vi	-10.873
▁blog	-10.8734
▁Tiere	-10.8736
▁Kra	-10.8736
▁Mittelmeer	-10.8737
62	-10.874
▁someone	-10.874
▁Bor	-10.874
oper	-10.874
sicherung	-10.8741
ido	-10.8743
NS	-10.8744
▁Veranstaltungen	-10.8746
▁Mitgliedern	-10.8746
▁smaller	-10.8746
regeln	-10.8746
▁Rules	-10.875
▁sieben	-10.8755
▁Get	-10.8758
Veröffentlichung	-10.8759
▁Revolution	-10.8759
▁attraktiv	-10.8759
▁occasion	-10.8762
▁director	-10.8764
ks	-10.8764
cro	-10.8765
PC	-10.8766
Com	-10.8766
atoren	-10.8768
▁Pat	-10.8773
▁Socialist	-10.8775
▁Freunde	-10.8776
▁primary	-10.8776
ets	-10.8777
▁determined	-10.8778
▁pr	-10.878
▁nearly	-10.878
▁solid	-10.8781
▁hair	-10.8781
▁Gästen	-10.8783
▁Kreis	-10.8783
▁Massen	-10.8785
▁Süden	-10.8787
▁lock	-10.8788
▁technological	-10.8793
▁Schwarz	-10.8793
▁au	-10.8794
▁commitments	-10.8794
ffer	-10.8794
▁zuständig	-10.8795
IM	-10.8795
oon	-10.8795
▁Java	-10.8795
wick	-10.8795
▁Wachstums	-10.8795
▁Minderheiten	-10.8796
▁nation	-10.8797
▁EC	-10.8797
ville	-10.8797
▁Verbot	-10.8797
▁recovery	-10.8799
▁Non	-10.8799
▁recommendations	-10.8802
SV	-10.8803
schule	-10.8804
▁Unterschied	-10.8806
ér	-10.8807
▁Programms	-10.8807
▁territorial	-10.8808
▁Fähigkeit	-10.8808
kreis	-10.8809
lot	-10.8809
▁leiden	-10.881
▁sides	-10.8811
▁App	-10.8813
▁Vertrieb	-10.8814
gezahlt	-10.8814
frei	-10.8815
pic	-10.8815
▁representative	-10.8816
48	-10.8817
▁Use	-10.8821
bert	-10.8822
▁stimmt	-10.8822
▁bedeutende	-10.8823
▁anbieten	-10.8827
▁renoviert	-10.8827
▁ausführlich	-10.8827
▁nochmals	-10.8828
bor	-10.8831
▁fr	-10.8833
ierenden	-10.8834
▁j	-10.8834
▁san	-10.8839
TH	-10.8842
▁umfangreiche	-10.8843
▁Anbieter	-10.8844
issen	-10.8845
▁Old	-10.8845
44	-10.8849
fl	-10.8849
dos	-10.8854
egel	-10.8857
gebracht	-10.8857
gro	-10.8857
▁Fraktionen	-10.8859
▁Vice	-10.886
▁Vielleicht	-10.8861
▁erscheinen	-10.8862
Ha	-10.8862
▁vielmehr	-10.8862
▁division	-10.8862
▁goals	-10.8863
▁Charter	-10.8864
▁southern	-10.8865
ando	-10.8866
▁Express	-10.8868
▁teilen	-10.8872
▁Log	-10.8872
▁reply	-10.8873
▁requested	-10.8874
▁reichen	-10.8875
▁tu	-10.8876
▁disposal	-10.8878
▁Enjoy	-10.8878
smoking	-10.8879
strahl	-10.889
digen	-10.8891
HA	-10.8893
▁turned	-10.8894
date	-10.8894
▁Effizienz	-10.8896
▁Financial	-10.8896
▁soft	-10.8896
▁School	-10.8896
ional	-10.8897
▁Eltern	-10.8897
▁250	-10.8898
▁Vision	-10.8898
▁strict	-10.8903
▁appreciate	-10.8911
▁Mode	-10.8912
▁München	-10.8913
▁gefördert	-10.8913
38	-10.8914
▁fat	-10.8914
▁Shop	-10.8918
▁books	-10.8918
▁nationaler	-10.892
minister	-10.8922
▁deserve	-10.8924
▁Verein	-10.8929
▁president	-10.8929
▁Bedrohung	-10.893
▁residence	-10.893
▁qualified	-10.893
▁zustimmen	-10.893
▁Datenschutz	-10.8931
▁Regierungs	-10.8932
ello	-10.8933
ogen	-10.8939
▁acceptable	-10.8941
fähigkeit	-10.8942
CT	-10.8945
▁nahm	-10.8945
▁Cer	-10.8945
▁achieving	-10.8947
▁Überzeugung	-10.8947
▁identity	-10.8947
▁Trotz	-10.8948
▁Gal	-10.895
▁künftig	-10.8951
spe	-10.8951
78	-10.8956
tür	-10.8958
austausch	-10.896
▁Nieder	-10.8965
▁driving	-10.8965
▁Angebote	-10.8965
▁compensation	-10.8966
▁causes	-10.8967
ele	-10.8967
sti	-10.8967
ppe	-10.8969
▁kostenfrei	-10.897
▁Freund	-10.8972
fra	-10.8973
its	-10.8974
▁qui	-10.8975
▁mechanisms	-10.8978
pho	-10.898
▁tea	-10.8981
▁starken	-10.8982
▁privacy	-10.8982
▁Zentralbank	-10.8982
ira	-10.8984
▁reich	-10.8984
▁SE	-10.8984
▁sicherstellen	-10.8985
scha	-10.8987
scher	-10.899
▁5-	-10.8994
▁gew	-10.8996
sicher	-10.8997
matic	-10.8999
▁Gewicht	-10.8999
▁wi	-10.9
▁sonst	-10.9
▁Grenze	-10.9
stance	-10.9001
▁Bedenken	-10.9004
tial	-10.9004
▁interessante	-10.9005
▁colleague	-10.9009
▁bas	-10.9012
ject	-10.9013
▁politisch	-10.9016
▁Geschäft	-10.9016
▁consensus	-10.9017
▁renewable	-10.9017
▁communities	-10.9017
▁Hof	-10.9018
yo	-10.902
anischen	-10.9021
▁é	-10.9021
▁beschränkt	-10.9024
tron	-10.9024
▁Poli	-10.9024
▁substantial	-10.9025
▁leads	-10.9027
werfen	-10.9028
▁hi	-10.9031
▁filter	-10.9031
▁erhältlich	-10.9032
▁Hin	-10.9034
▁begonnen	-10.9034
format	-10.9035
▁scene	-10.9037
▁Vater	-10.9038
forschung	-10.9042
▁Touristen	-10.9044
▁Wild	-10.9047
ify	-10.9049
cri	-10.9049
ram	-10.9051
▁Symbol	-10.9051
▁speakers	-10.9051
▁fashion	-10.9052
▁Gegenteil	-10.9052
▁(2	-10.9053
atory	-10.9054
▁großes	-10.9055
state	-10.9055
meister	-10.9058
▁Tom	-10.9059
tis	-10.906
bestimmung	-10.9061
▁Nice	-10.9061
3)	-10.9064
▁verlieren	-10.9069
▁discharge	-10.907
▁password	-10.907
stell	-10.907
hängen	-10.907
▁höchsten	-10.9072
▁Anliegen	-10.9072
▁felt	-10.9074
teile	-10.9075
▁ähnliche	-10.9077
▁geringer	-10.9078
▁King	-10.9086
▁kontextuell	-10.9087
▁shift	-10.9087
rates	-10.9087
▁fer	-10.9093
▁traditionelle	-10.9098
gesellschaftlich	-10.91
▁compliance	-10.9102
tos	-10.9102
▁Rotary	-10.9105
Der	-10.9107
▁Flash	-10.9108
▁sichern	-10.9112
55	-10.9114
▁villa	-10.9114
▁grundlegende	-10.9116
▁vollständige	-10.9119
▁proceed	-10.9121
▁applicable	-10.9122
▁Schlafzimmer	-10.9122
▁constructive	-10.9123
▁RE	-10.9124
▁Action	-10.9125
oma	-10.9125
▁browser	-10.9128
▁Wegen	-10.9128
Bo	-10.9132
▁siehe	-10.9133
▁contents	-10.9134
]],	-10.9135
dre	-10.9136
uer	-10.9137
▁Mitteln	-10.9137
▁fällt	-10.9137
mod	-10.9138
▁Versorgung	-10.9139
▁sanctions	-10.9139
▁Menü	-10.9142
▁trial	-10.9142
Ko	-10.9151
▁eye	-10.9153
▁Blue	-10.9155
▁resolve	-10.9156
▁dürfte	-10.9157
▁interior	-10.9157
▁delivered	-10.9158
▁criticism	-10.9158
sucht	-10.9159
▁Verteidigung	-10.9161
▁strengthening	-10.9162
Service	-10.9164
▁disc	-10.9165
▁named	-10.9168
▁recommended	-10.9169
▁ähnlich	-10.9172
char	-10.9174
ehr	-10.9174
▁Gerichte	-10.9174
▁entspannen	-10.9175
▁existence	-10.9176
▁fra	-10.9179
itar	-10.9181
▁Thanks	-10.9182
▁Schule	-10.9182
run	-10.9183
▁achievement	-10.9186
▁Strategien	-10.9186
▁Fü	-10.9189
▁VI	-10.9189
▁dispute	-10.9193
▁Hü	-10.9193
▁sauna	-10.9193
wirkung	-10.9194
lies	-10.9196
▁piece	-10.9197
▁mandate	-10.9199
unsten	-10.9201
▁reaction	-10.9202
▁angeht	-10.9202
▁putting	-10.9202
▁cycle	-10.9203
▁zuverlässig	-10.921
▁sensible	-10.921
▁creative	-10.9211
▁Strukturfonds	-10.9211
▁17.	-10.9212
nom	-10.9221
▁Verhältnis	-10.9221
▁Dienstleistungs	-10.9223
▁hochwertige	-10.9223
▁Kilometer	-10.9228
▁Verfügbarkeit	-10.9228
▁Betracht	-10.9228
aire	-10.923
▁lounge	-10.9233
▁Bro	-10.9236
Adresse	-10.9236
▁Photo	-10.9237
▁möglichen	-10.9238
long	-10.9238
▁Bon	-10.9242
▁heat	-10.9242
mitten	-10.9242
▁positiven	-10.9245
iere	-10.9245
▁führenden	-10.9246
▁opposite	-10.9246
▁Ausstattung	-10.9246
▁vacation	-10.9246
würdig	-10.9246
▁damals	-10.9246
▁wiederholt	-10.9247
▁1993	-10.9248
▁pri	-10.9249
▁erhebliche	-10.9249
ane	-10.9253
▁Alp	-10.9253
▁Hans	-10.9254
▁Schluss	-10.9256
▁impression	-10.9256
▁menschliche	-10.9259
▁ball	-10.926
▁nations	-10.9261
hole	-10.9261
▁thereby	-10.9263
▁zeit	-10.9263
▁Strategy	-10.9263
▁approval	-10.9263
▁Pflanzen	-10.9264
bie	-10.9265
▁1980	-10.9267
▁permit	-10.9273
face	-10.9274
▁drink	-10.9274
31	-10.9277
▁Minutes	-10.9278
▁Wohnung	-10.9279
▁bedroom	-10.9279
geordnet	-10.928
▁truth	-10.9282
▁bereitgestellt	-10.9283
▁Stellung	-10.9285
▁Blut	-10.9287
▁waiting	-10.9292
▁Komm	-10.9294
gemeinschaft	-10.9294
▁acts	-10.9296
▁sozial	-10.9297
▁disaster	-10.9297
▁Kaffee	-10.9299
▁langsam	-10.93
▁Farben	-10.9306
▁Umständen	-10.9308
▁prop	-10.9309
fassung	-10.9309
▁Monte	-10.931
stil	-10.931
class	-10.9312
▁controls	-10.9315
▁indicate	-10.9317
Berücksichtigung	-10.9317
▁Gründung	-10.9317
▁liability	-10.9318
▁convert	-10.932
phase	-10.932
Ho	-10.9322
pool	-10.9324
kul	-10.9325
▁Bildungs	-10.9326
▁Operation	-10.9327
▁Vol	-10.9328
lager	-10.9329
▁betreffen	-10.933
▁uses	-10.9333
▁Perspektive	-10.9335
▁Gleichgewicht	-10.9335
▁beschrieben	-10.9335
▁Airbus	-10.9336
▁Mur	-10.9337
▁derzeitigen	-10.934
71	-10.9342
▁binding	-10.9342
▁Ap	-10.9342
▁Fax	-10.9348
▁NI	-10.9353
▁übernommen	-10.9353
cup	-10.9353
▁100%	-10.9356
▁800	-10.9357
▁besseren	-10.9357
▁intensiv	-10.9357
▁),	-10.9359
produkte	-10.936
iro	-10.9365
▁investments	-10.9365
▁Einstellung	-10.9366
▁schools	-10.9367
▁Kollege	-10.9367
▁Methoden	-10.9369
analyse	-10.9371
▁marked	-10.9374
▁Diskussionen	-10.9377
▁Internationalen	-10.938
▁Verkauf	-10.938
▁onto	-10.9381
▁Ber	-10.9386
▁Dokumente	-10.9387
place	-10.9388
▁error	-10.9389
▁cent	-10.939
▁friend	-10.9392
▁bestehende	-10.9393
▁ehemaligen	-10.9393
komm	-10.9397
▁significantly	-10.9401
67	-10.9407
▁bemüht	-10.9407
▁sleep	-10.9407
▁expense	-10.9407
teilen	-10.9411
▁horse	-10.9415
▁proud	-10.9416
▁sex	-10.9418
▁Ref	-10.9423
▁charming	-10.9426
▁Kunde	-10.9428
▁Bett	-10.9429
▁Schulden	-10.943
▁previously	-10.9431
ying	-10.9433
▁manufacturers	-10.9434
▁dé	-10.9435
▁Cri	-10.9437
▁leisure	-10.9443
ace	-10.9445
▁Redner	-10.9449
▁konkreten	-10.9449
200	-10.945
▁pick	-10.9451
▁constant	-10.9452
▁represented	-10.9454
▁Stunde	-10.9458
▁besucht	-10.946
▁leadership	-10.9462
▁liefern	-10.9463
▁critic	-10.9468
aktiv	-10.9469
▁angemessene	-10.9469
▁exists	-10.9469
▁Dort	-10.9474
▁läuft	-10.9474
▁Maßnahme	-10.9477
▁Metro	-10.9477
▁Gri	-10.9478
CA	-10.9478
▁assume	-10.948
▁operators	-10.9481
▁obligation	-10.9481
gezogen	-10.9483
▁weg	-10.9484
▁75	-10.9488
▁36	-10.9488
36	-10.9489
▁keiner	-10.9491
▁Key	-10.9491
▁Handeln	-10.9493
Ab	-10.9494
▁realise	-10.9495
▁bedarf	-10.9495
▁dauerhaft	-10.9498
▁weather	-10.9498
▁Studenten	-10.95
▁seitens	-10.9504
69	-10.9504
bü	-10.9506
▁Bahn	-10.9509
▁Kyoto	-10.9516
▁reicht	-10.9518
▁outdoor	-10.9518
▁expectations	-10.9518
üsse	-10.9521
▁genauso	-10.9522
▁pot	-10.9524
▁wiederum	-10.9525
▁Frist	-10.9527
▁600	-10.9529
▁Rumänien	-10.9535
▁politicians	-10.9535
▁schafft	-10.9535
▁exceed	-10.9535
kov	-10.9536
▁Bord	-10.9538
itter	-10.9538
▁contrast	-10.9538
▁Haftung	-10.9541
▁Bucht	-10.9544
wards	-10.9546
▁Tauch	-10.9548
▁brings	-10.9548
▁Ya	-10.9551
▁affairs	-10.9551
▁individuelle	-10.9553
▁corner	-10.9553
▁Einklang	-10.9553
▁Führer	-10.9553
▁valley	-10.9553
ibility	-10.9553
▁default	-10.9553
▁situations	-10.9555
design	-10.9555
▁entlang	-10.9556
▁Freizeit	-10.9556
uc	-10.956
etz	-10.956
▁schließen	-10.9561
▁react	-10.9563
nischen	-10.9564
▁Paper	-10.9567
▁Friedens	-10.9567
▁Fälle	-10.9568
border	-10.9569
gri	-10.9569
hard	-10.9571
▁Wahrheit	-10.9571
▁ziemlich	-10.9571
▁investigation	-10.9571
▁Ce	-10.9572
▁befassen	-10.9572
▁Doppel	-10.9572
▁involvement	-10.9573
▁einerseits	-10.9574
▁Werbe	-10.9576
team	-10.9576
▁Lieferung	-10.9576
65	-10.958
hnen	-10.9581
▁trees	-10.9581
geld	-10.9583
▁Ratsvorsitz	-10.9583
▁("	-10.9583
mobil	-10.9584
mate	-10.9585
▁Rot	-10.9585
cil	-10.9586
▁Shar	-10.9586
stag	-10.9587
▁dynamisch	-10.959
▁tackle	-10.959
▁außergewöhnlich	-10.959
▁entdeckt	-10.959
▁verlangen	-10.959
▁Zeitung	-10.9591
MP	-10.9594
▁ST	-10.9594
▁120	-10.9597
No	-10.9599
▁entered	-10.9599
▁continent	-10.9601
▁Dauer	-10.9601
sc	-10.9605
▁Erzeugnisse	-10.9608
▁verlangt	-10.9608
▁remote	-10.9608
▁advise	-10.961
▁Pop	-10.9611
▁Inseln	-10.9611
▁requests	-10.9613
▁moved	-10.9617
▁Arm	-10.9618
▁Eingang	-10.962
▁Eigenschaften	-10.9622
ese	-10.9624
▁classic	-10.9625
idad	-10.9625
UT	-10.9626
gon	-10.9626
▁furniture	-10.9627
▁gewährt	-10.9627
▁Before	-10.9627
▁Baby	-10.9629
▁bars	-10.963
▁Kommunikations	-10.9632
▁recognised	-10.9633
MO	-10.9634
stitution	-10.9636
▁lautet	-10.9637
brechen	-10.9638
▁Allgemeinen	-10.9639
▁Net	-10.9639
situation	-10.964
figur	-10.9641
▁Munich	-10.9645
HO	-10.9646
▁diversity	-10.9647
▁serves	-10.9647
▁lag	-10.965
▁pop	-10.9653
▁Hinter	-10.9654
▁hoher	-10.9659
▁welchen	-10.966
zeichnen	-10.9664
▁Güter	-10.9664
▁Network	-10.9664
▁optimis	-10.9664
2010	-10.9666
▁Beruf	-10.9671
losen	-10.9672
▁sonstige	-10.9675
▁Atom	-10.9675
▁era	-10.9676
▁bridge	-10.9677
bia	-10.9679
▁wenden	-10.9682
▁Genehmigung	-10.9682
▁impressive	-10.9682
▁Nachrichten	-10.9683
▁fraud	-10.9683
verkehrs	-10.9685
film	-10.9685
▁Mein	-10.9685
▁Umgang	-10.9687
▁Voraussetzung	-10.9688
▁Gene	-10.9688
▁Far	-10.9689
▁output	-10.9691
▁Glück	-10.9694
rolle	-10.9696
geschrieben	-10.9697
weisung	-10.9699
▁weltweiten	-10.9703
▁rejected	-10.9703
▁kn	-10.9708
dig	-10.9711
path	-10.9714
geräte	-10.9715
2008	-10.9716
▁billig	-10.9716
▁Leitlinien	-10.972
▁copyright	-10.972
▁Feuer	-10.972
▁Mut	-10.9722
▁Ana	-10.9724
▁weekend	-10.9724
▁Take	-10.9727
▁publish	-10.9729
Par	-10.9733
aria	-10.9736
stehenden	-10.9738
▁pu	-10.9738
▁führte	-10.9738
▁engineering	-10.9739
▁dishes	-10.9739
▁ließ	-10.9743
▁fulfil	-10.9745
▁cold	-10.9745
züge	-10.9749
gericht	-10.975
▁drop	-10.9751
▁ride	-10.9753
erseits	-10.9753
▁wall	-10.9754
front	-10.9754
▁2009.	-10.9757
▁entertainment	-10.9757
▁Wirklichkeit	-10.9757
raten	-10.976
▁suffering	-10.976
▁Dadurch	-10.9761
▁Gestaltung	-10.9761
▁Umweltschutz	-10.9763
▁ones	-10.9767
▁Up	-10.9768
▁stat	-10.9768
▁16.	-10.9772
▁Übernachtung	-10.9776
▁umgeben	-10.9777
▁gestern	-10.9779
▁dining	-10.9782
key	-10.9784
▁whatever	-10.9785
▁37	-10.9785
bur	-10.9789
Do	-10.979
ehrt	-10.9792
heiten	-10.9798
▁durchzuführen	-10.98
▁ausgerichtet	-10.9801
▁Empfehlung	-10.9801
▁Gleich	-10.9802
▁boot	-10.9803
▁Teilen	-10.9805
▁protecting	-10.9806
▁apart	-10.9807
▁belief	-10.9808
▁exclusively	-10.981
▁fix	-10.9811
▁weiteres	-10.9811
▁eventuell	-10.9815
▁description	-10.9816
▁cru	-10.9819
▁lebt	-10.9821
far	-10.9823
▁Mos	-10.9823
▁stations	-10.9824
▁Client	-10.9825
neu	-10.9827
▁angemessen	-10.9828
cip	-10.9829
▁diseases	-10.9831
▁od	-10.9831
▁condemn	-10.9833
DR	-10.9837
stehende	-10.9838
wei	-10.9839
tle	-10.984
tzt	-10.9843
▁quote	-10.9844
UM	-10.9845
▁requirement	-10.9846
▁Ausführung	-10.9847
▁Kreditkarte	-10.9847
stream	-10.9849
▁Fel	-10.985
▁seien	-10.985
pra	-10.985
▁Sanktionen	-10.9851
▁Mittelpunkt	-10.9855
▁talks	-10.9855
▁Zo	-10.9855
IG	-10.9856
▁senden	-10.9859
▁spaces	-10.986
cel	-10.9865
▁Antworten	-10.9868
▁whilst	-10.987
▁Verantwortlich	-10.9871
▁Mikro	-10.9871
▁medizinische	-10.9871
▁2.0	-10.9874
▁Part	-10.9876
▁Gang	-10.9879
▁Suite	-10.988
▁Details	-10.9882
▁geo	-10.9882
viel	-10.9885
▁Stock	-10.9887
▁Question	-10.9889
▁Ferner	-10.9891
▁bedrooms	-10.9892
komp	-10.9899
▁Küste	-10.9901
▁Gespräche	-10.9903
▁anschließend	-10.9906
▁Ziffer	-10.9909
relatively	-10.9911
▁Zusatz	-10.9912
▁arms	-10.9913
▁Han	-10.9913
▁testing	-10.9916
▁consistent	-10.9918
▁happens	-10.992
▁einfacher	-10.9924
lau	-10.9926
▁Eisenbahn	-10.9927
▁Badezimmer	-10.9928
ls	-10.9928
▁Browser	-10.9928
▁trotzdem	-10.9928
▁hardware	-10.9929
▁Ed	-10.9933
tom	-10.9935
▁intend	-10.9939
sländern	-10.994
isches	-10.9942
▁Nu	-10.9943
▁recommendation	-10.9944
▁trail	-10.9944
▁10.	-10.9944
▁streets	-10.9945
▁valuable	-10.9946
fang	-10.9948
cast	-10.9948
▁liberalisation	-10.9949
▁objects	-10.9949
▁bezieht	-10.995
▁hell	-10.995
▁lit	-10.9951
▁hinzu	-10.9952
iving	-10.9956
regelung	-10.9956
▁größer	-10.9957
▁dans	-10.9957
▁festival	-10.9958
ppel	-10.9958
▁MS	-10.9961
vil	-10.9961
▁Wien	-10.9963
47	-10.9964
▁Geschmack	-10.9965
▁Schweden	-10.9966
▁zählt	-10.9966
▁Materialien	-10.9967
▁vast	-10.9969
▁Sche	-10.9969
▁Schäden	-10.9969
▁helping	-10.9971
uten	-10.9974
gor	-10.9974
▁Bauern	-10.9975
▁Beschluss	-10.9975
round	-10.9976
hören	-10.998
▁Maastricht	-10.9985
▁zweifellos	-10.9985
▁finde	-10.9985
▁Strecke	-10.9986
▁beraten	-10.9988
▁OF	-10.9988
▁Geschäfte	-10.9989
▁Casa	-10.9991
liegen	-10.9994
▁Orte	-10.9994
▁Mission	-10.9994
▁except	-10.9995
führt	-10.9999
▁rental	-10.9999
▁taxes	-11.0001
Schlussfolgerung	-11.0004
▁gebaut	-11.0004
▁Lauf	-11.0004
▁relative	-11.0005
▁reserve	-11.0007
▁spät	-11.0007
rag	-11.001
▁gezogen	-11.0011
▁refugees	-11.0012
▁Verhandlungs	-11.0013
▁Jung	-11.0014
water	-11.0015
89	-11.0015
made	-11.0017
▁15.	-11.0019
wunder	-11.002
flex	-11.0023
▁intellectual	-11.0023
▁gespeichert	-11.0023
GO	-11.0024
▁alarm	-11.0024
▁respective	-11.0027
linie	-11.0027
0)	-11.0028
ics	-11.0035
Or	-11.0036
▁Zimmern	-11.0041
▁Kategorie	-11.0042
}	-11.0042
▁Swedish	-11.0042
▁temporary	-11.0042
▁entschlossen	-11.0042
ökonom	-11.0042
comp	-11.0044
▁zusätzlichen	-11.0046
▁Besitz	-11.0046
karten	-11.0051
bis	-11.0056
▁irgendeine	-11.0062
▁Zahlungs	-11.0063
▁radical	-11.0064
▁bekannten	-11.0066
▁confirmed	-11.0067
▁eat	-11.0069
▁attract	-11.007
▁fu	-11.007
quar	-11.007
▁cast	-11.007
technologie	-11.0076
1/	-11.0077
rischen	-11.0077
öpfe	-11.0077
51	-11.0078
▁fein	-11.0078
▁2010.	-11.0078
▁Identität	-11.0081
▁Regulierung	-11.0081
▁abgelehnt	-11.0081
▁Übereinstimmung	-11.0081
▁erinnert	-11.0081
trick	-11.0081
dri	-11.0083
▁Indian	-11.0083
phone	-11.0086
▁Spe	-11.0087
▁runs	-11.0097
▁AS	-11.0098
▁wichtiges	-11.0099
▁Erinnerung	-11.01
▁niemals	-11.01
▁Umfeld	-11.0106
Beifall	-11.0107
▁Chr	-11.0107
fahr	-11.0115
▁Sav	-11.0115
▁Renn	-11.0116
▁forum	-11.0118
▁laufen	-11.0118
▁arrive	-11.0121
▁Kontext	-11.0121
▁Info	-11.0129
▁Sein	-11.0133
leistungen	-11.0135
▁GNU	-11.0139
▁erhielt	-11.0139
▁gather	-11.0139
▁ergriffen	-11.0139
▁fill	-11.014
▁schönsten	-11.0143
ación	-11.0143
▁improvements	-11.0144
▁latter	-11.0144
▁transportation	-11.0146
▁38	-11.0146
▁sit	-11.0146
ego	-11.0147
▁career	-11.0156
▁Asien	-11.0158
▁album	-11.0159
▁erreichbar	-11.0159
▁Börse	-11.0159
▁britische	-11.0159
style	-11.0166
lösung	-11.0167
▁personally	-11.0168
76	-11.0169
night	-11.0169
▁18.	-11.0171
▁passiert	-11.0173
▁Bur	-11.0175
▁kinds	-11.0177
▁kompliziert	-11.0178
▁ungefähr	-11.0178
walt	-11.0179
▁Safety	-11.0179
oph	-11.0184
COM	-11.0187
▁handling	-11.0189
rb	-11.019
77	-11.0193
▁gelegt	-11.0195
▁sofern	-11.0196
rahmen	-11.0197
▁Executive	-11.0198
▁öffnen	-11.0198
▁dollar	-11.0198
▁spoke	-11.02
▁Bla	-11.02
hle	-11.02
äh	-11.0201
▁Rock	-11.0205
▁expert	-11.0214
partei	-11.0216
plant	-11.0217
zukommen	-11.0219
pping	-11.0219
▁spezifische	-11.0221
▁ki	-11.0224
ierbar	-11.0226
▁fühlen	-11.0228
▁meat	-11.0229
▁obtained	-11.0231
qua	-11.0232
▁kurzem	-11.0235
TC	-11.0235
▁leaving	-11.0237
▁ursprünglichen	-11.0237
▁Plaza	-11.0238
▁angesehen	-11.0238
▁figure	-11.024
▁abroad	-11.024
▁healthy	-11.0243
izi	-11.0243
▁Serbia	-11.0245
}})	-11.0249
▁12.	-11.025
▁script	-11.025
▁sauber	-11.0251
▁gültig	-11.0254
messe	-11.0254
▁schreiben	-11.0255
▁Elektro	-11.0257
vig	-11.0259
field	-11.026
▁launched	-11.0263
wehr	-11.0265
▁Play	-11.0271
zahlung	-11.0273
▁Technology	-11.0276
▁Welcome	-11.0276
▁renovated	-11.0276
▁pattern	-11.0277
▁articles	-11.0278
▁stream	-11.0279
▁upgrade	-11.0279
▁remaining	-11.0281
▁umfassenden	-11.0281
▁helped	-11.0282
▁grosse	-11.0282
▁neuesten	-11.0282
46	-11.0284
▁handle	-11.0285
ret	-11.0286
▁fan	-11.0287
uni	-11.0288
▁Norden	-11.0295
41	-11.0295
▁({{	-11.0296
▁emp	-11.0297
▁Kap	-11.0297
▁combating	-11.0298
$	-11.0299
▁units	-11.0299
▁USD	-11.0301
Ja	-11.0305
▁discovered	-11.0305
▁treaty	-11.0308
▁richten	-11.0309
fragt	-11.0312
▁1000	-11.0313
▁?	-11.0314
known	-11.0315
▁UNO	-11.0315
▁planet	-11.0317
▁unterzeichnet	-11.0317
▁revolution	-11.0318
▁Gaza	-11.0318
▁cable	-11.032
wood	-11.0321
▁sichtbar	-11.0323
▁contributions	-11.0324
▁Second	-11.0326
▁Pet	-11.0327
▁Fehl	-11.0329
▁Its	-11.0331
▁Effekt	-11.0334
▁grundlegenden	-11.0335
krieg	-11.0336
▁Luxembourg	-11.0336
▁Temperatur	-11.0336
▁involving	-11.0336
▁witness	-11.0336
▁convention	-11.0337
▁contracts	-11.0339
▁repair	-11.0341
suite	-11.0341
▁Inn	-11.0342
▁ausgezeichneten	-11.0346
▁artist	-11.0347
▁Mail	-11.0348
▁Zwecke	-11.035
▁Kann	-11.0352
▁komplette	-11.0354
but	-11.0354
▁Provinz	-11.0356
▁Automobil	-11.0357
▁Werkzeug	-11.0358
▁Verbesserungen	-11.0361
abel	-11.0363
▁umzusetzen	-11.0363
▁staatliche	-11.0365
37	-11.0365
▁Dol	-11.0367
▁Handlung	-11.0369
▁holding	-11.037
mmel	-11.037
▁Still	-11.0372
▁Fair	-11.0373
▁13.	-11.0375
▁zentral	-11.0375
▁weshalb	-11.0376
▁Schüler	-11.0376
verwaltung	-11.0376
▁Festlegung	-11.0376
▁versions	-11.0378
▁Normen	-11.0378
ierende	-11.0381
▁voller	-11.0381
▁bound	-11.0386
pekt	-11.039
▁transition	-11.0392
iff	-11.0393
▁characteristics	-11.0394
▁Deck	-11.0394
▁EG	-11.0395
▁Flüchtlinge	-11.0396
▁erneuerbare	-11.0396
▁lobby	-11.0396
▁verurteilt	-11.0396
viertel	-11.0397
▁Baltic	-11.0397
▁menschlichen	-11.0401
ink	-11.0402
▁Stu	-11.0404
▁schwierigen	-11.0406
▁Mas	-11.0406
▁erfolgreiche	-11.0411
scale	-11.0412
▁beträgt	-11.0416
▁Ware	-11.0416
▁severe	-11.0416
▁Ohne	-11.0419
▁replace	-11.0419
flow	-11.042
▁Pf	-11.0421
▁auftreten	-11.0421
▁tip	-11.0421
▁Sach	-11.0426
▁Ideal	-11.0429
▁Kr	-11.0431
▁Gro	-11.0435
▁Sicherung	-11.0436
▁Salzburg	-11.0436
admin	-11.0438
dass	-11.044
▁cre	-11.0442
▁Milch	-11.0444
▁wave	-11.0446
▁suit	-11.0448
▁charges	-11.045
▁automatic	-11.0456
▁Harmonisierung	-11.0456
▁Procedure	-11.0456
▁Vermittlung	-11.0456
▁heritage	-11.0456
▁ambition	-11.0456
▁entscheidend	-11.0457
▁verkauft	-11.0457
▁investors	-11.0457
center	-11.0458
▁zuständigen	-11.0459
AV	-11.0462
dio	-11.0463
steigen	-11.0463
▁sexual	-11.0464
sagen	-11.0467
▁opposed	-11.0468
ania	-11.0473
▁hostel	-11.0473
▁entdecken	-11.0476
▁bekämpfen	-11.0476
▁wunderbar	-11.0476
heben	-11.0477
▁describe	-11.0478
▁treated	-11.0478
pul	-11.0479
▁PA	-11.048
▁domain	-11.048
▁Urteil	-11.0484
por	-11.0488
▁Schiffe	-11.049
▁Drittländern	-11.049
serie	-11.0491
reiche	-11.0492
▁TO	-11.0493
schläge	-11.0494
▁manual	-11.0496
▁Science	-11.0496
▁Ausgangspunkt	-11.0496
▁visual	-11.0496
▁wirksame	-11.0497
▁cm	-11.0497
maschine	-11.0498
▁habit	-11.0498
▁Europol	-11.0502
▁Angel	-11.0503
▁Marina	-11.0505
▁bike	-11.0507
▁websites	-11.051
▁accounts	-11.0511
▁firstly	-11.0513
▁letzter	-11.0515
▁exceptional	-11.0516
▁fantastic	-11.0516
▁supposed	-11.0516
▁Thomas	-11.0516
▁afternoon	-11.0516
▁mobility	-11.0516
▁excessive	-11.0517
▁Reserve	-11.0519
▁gro	-11.0521
€	-11.0521
Ä	-11.0521
▁older	-11.0522
dien	-11.0523
-20	-11.0523
▁BE	-11.0526
haushalt	-11.0527
▁precise	-11.0527
▁soweit	-11.053
CK	-11.0531
▁harm	-11.0531
▁fehlt	-11.0533
uri	-11.0534
▁View	-11.0534
konzept	-11.0537
▁Glauben	-11.0537
▁eigenes	-11.0537
▁Year	-11.0537
▁1991	-11.0539
ambi	-11.0539
▁fighting	-11.054
initiative	-11.0542
pair	-11.0543
▁Kong	-11.0544
▁Küsten	-11.0544
▁00	-11.0545
east	-11.0546
cop	-11.0546
folge	-11.0549
gung	-11.0549
now	-11.0551
▁laden	-11.0551
▁Their	-11.0553
▁advantages	-11.0555
▁Cyprus	-11.0557
▁besitzen	-11.0558
▁Il	-11.0558
bereiche	-11.056
anti	-11.0562
▁rank	-11.0563
▁Kenn	-11.0563
▁panel	-11.0565
verbrauch	-11.0567
▁tests	-11.057
▁EN	-11.057
▁Tur	-11.0571
▁Hy	-11.0573
kurs	-11.0573
▁tag	-11.0573
SCH	-11.0574
▁Earth	-11.0577
▁reinforce	-11.0577
▁museum	-11.0578
▁expertise	-11.0578
▁Polish	-11.0579
body	-11.058
swert	-11.0581
▁Arbeitsplätzen	-11.0583
▁News	-11.0588
▁durchführen	-11.0589
lands	-11.059
kunden	-11.0595
gram	-11.0596
▁hostels	-11.0597
▁suffer	-11.0597
▁Ambiente	-11.0597
▁clause	-11.0598
▁Sunday	-11.0598
▁familiar	-11.0599
100	-11.0599
▁geehrte	-11.0601
▁youth	-11.0601
▁maintained	-11.0602
▁sto	-11.0602
▁lovely	-11.0602
92	-11.0603
▁passengers	-11.0605
▁cash	-11.0608
kop	-11.0611
▁doctor	-11.0612
▁sets	-11.0613
▁studio	-11.0615
▁Through	-11.0618
▁balcony	-11.0618
▁verbreitet	-11.0618
▁properties	-11.0619
▁ruhigen	-11.0619
▁Ausmaß	-11.0621
▁einheitliche	-11.0621
lov	-11.0622
▁Sauna	-11.0622
▁geschrieben	-11.0623
▁fordere	-11.0623
▁offene	-11.0624
Projekt	-11.0624
▁dark	-11.0628
▁inzwischen	-11.0629
rechnen	-11.063
alien	-11.063
▁iron	-11.0631
▁riesigen	-11.0632
▁Product	-11.0632
UNG	-11.0633
▁Jedes	-11.0635
IR	-11.0637
kräfte	-11.0637
▁smooth	-11.0638
▁spezialisiert	-11.0638
▁restrictions	-11.0639
▁HD	-11.0641
▁ausgesprochen	-11.0641
▁1989	-11.0641
▁öffentlich	-11.0642
▁equally	-11.0642
▁kurze	-11.0642
kre	-11.0649
▁führende	-11.0652
▁Erwartungen	-11.0654
▁Reservierung	-11.0655
▁substances	-11.0657
▁geprüft	-11.0659
▁depends	-11.0661
▁strategies	-11.0661
zunehmen	-11.0663
gesellschaften	-11.0664
▁notwendige	-11.0672
▁returned	-11.0672
ished	-11.0675
▁pan	-11.0677
-19	-11.0679
▁hilft	-11.0679
▁Andere	-11.0679
▁Tatsächlich	-11.0679
▁erlebt	-11.068
▁Agrarpolitik	-11.0681
▁Gesicht	-11.0683
▁Dusche	-11.0686
liefer	-11.0688
▁Detail	-11.069
▁eyes	-11.0691
mont	-11.0698
RM	-11.0698
▁Regen	-11.0699
tail	-11.0699
▁Instead	-11.07
▁Verarbeitung	-11.07
▁Nov	-11.07
ois	-11.07
▁Wohlstand	-11.0701
▁Schä	-11.0701
sum	-11.0702
▁removed	-11.0704
▁ye	-11.0705
schrieb	-11.0707
▁zer	-11.0708
▁Vel	-11.071
▁33	-11.0713
▁organizations	-11.0714
tics	-11.0715
▁Miet	-11.0715
▁gender	-11.0717
▁Gor	-11.0718
garten	-11.0719
▁girl	-11.0721
▁Vorsitz	-11.0721
▁decorated	-11.0721
▁topic	-11.0723
▁temp	-11.0723
▁arrangements	-11.0724
▁sheet	-11.0726
verhalten	-11.0728
▁vieler	-11.0731
landschaft	-11.0733
schi	-11.0734
▁reden	-11.0735
sichtig	-11.0735
▁suite	-11.0735
▁texts	-11.0737
▁Las	-11.0741
▁Gerät	-11.0741
▁Budapest	-11.0741
▁bestätigen	-11.0741
▁configuration	-11.0741
▁entrance	-11.0741
▁unverzüglich	-11.0741
▁hervorheben	-11.0742
▁Opposition	-11.0742
messen	-11.0742
▁fee	-11.0745
setzt	-11.0747
conf	-11.0747
▁Tool	-11.0747
▁Balkan	-11.075
▁SO	-11.0754
0%	-11.0755
▁angegeben	-11.0755
▁Tru	-11.0756
boot	-11.0756
▁direkte	-11.0757
▁berühmte	-11.0758
▁Vin	-11.0759
▁exploit	-11.0759
▁spanischen	-11.0761
▁subsidies	-11.0762
▁Mobilität	-11.0762
▁gelöst	-11.0762
▁Intervention	-11.0763
wel	-11.0764
▁Mangel	-11.0769
▁involve	-11.077
related	-11.0771
▁OS	-11.0772
▁übernimmt	-11.078
asi	-11.078
▁officials	-11.0781
▁somewhat	-11.0783
▁Australia	-11.0783
▁explanation	-11.0783
▁Häuser	-11.0783
▁bestimmen	-11.0783
▁verstanden	-11.0783
▁reduziert	-11.0783
▁Ladies	-11.0785
sim	-11.0786
halle	-11.0786
ländern	-11.0786
▁performed	-11.0787
▁Zone	-11.0789
▁Konto	-11.0795
▁issued	-11.0801
▁MEPs	-11.0802
▁Monetary	-11.0803
▁gewonnen	-11.0803
▁KMU	-11.0803
ily	-11.081
73	-11.0812
acy	-11.0818
print	-11.0818
tun	-11.082
▁wollten	-11.082
▁parents	-11.082
▁Angst	-11.0821
gelegt	-11.0823
▁Besonders	-11.0824
▁straight	-11.0824
▁MySQL	-11.0824
▁generell	-11.0825
▁verändern	-11.0826
nia	-11.0827
▁50%	-11.0828
▁einfachen	-11.0829
▁manche	-11.083
ROM	-11.0832
level	-11.0833
▁withdraw	-11.0837
NC	-11.0838
▁organized	-11.0841
pin	-11.0844
freundlich	-11.0844
▁Bearbeitung	-11.0845
▁Trend	-11.0849
jährige	-11.0849
für	-11.0852
gui	-11.0853
▁qua	-11.0853
isierten	-11.0855
▁Werke	-11.0858
onne	-11.086
mir	-11.086
▁paint	-11.0861
▁komplexe	-11.0861
▁Heimat	-11.0866
▁visible	-11.0866
▁plastic	-11.0866
usch	-11.0867
rische	-11.0872
▁Krisen	-11.0873
▁professionelle	-11.0874
▁conducted	-11.0874
▁Customer	-11.0877
▁ausgeführt	-11.0877
shi	-11.0878
liegenden	-11.088
gekommen	-11.0882
▁Schrift	-11.0882
▁disappear	-11.0887
▁Gentoo	-11.0887
▁Britain	-11.0888
▁Schatten	-11.0888
try	-11.0891
▁awareness	-11.0892
▁Mandat	-11.0894
▁privat	-11.0895
▁millions	-11.0897
▁interpretation	-11.09
▁Strukturen	-11.09
▁keeping	-11.09
▁ticket	-11.0903
behörden	-11.0905
cut	-11.0908
ausschuß	-11.0908
▁emergency	-11.0908
▁trifft	-11.0908
▁Kreuz	-11.0909
▁entscheidende	-11.0909
▁militärische	-11.0911
▁Edition	-11.0912
▁bill	-11.0914
▁west	-11.0914
▁Vorgehen	-11.0915
▁naturally	-11.0915
rel	-11.0918
▁Beispiele	-11.0918
▁examples	-11.0918
▁newly	-11.0919
▁Modul	-11.092
▁channel	-11.092
FP	-11.092
agon	-11.092
▁amounts	-11.0922
national	-11.0924
gef	-11.0926
▁geprägt	-11.0929
▁Entlastung	-11.0929
▁Investment	-11.0929
▁beglückwünschen	-11.093
▁Viertel	-11.093
▁Balkon	-11.093
▁Aktien	-11.0931
▁sentence	-11.0931
schaffen	-11.0932
▁gross	-11.0932
▁einig	-11.0932
▁Anfragen	-11.0934
▁frequently	-11.0935
ome	-11.0938
▁largely	-11.0938
▁Fleisch	-11.0939
▁01	-11.094
▁citizen	-11.094
▁tours	-11.0942
▁exit	-11.0945
▁covers	-11.0946
▁geboren	-11.0946
▁experiences	-11.0947
▁Krankheit	-11.0947
▁honour	-11.0948
▁joined	-11.0948
93	-11.0948
▁französische	-11.0949
ffi	-11.0949
▁Widerstand	-11.095
▁verhindert	-11.095
▁producing	-11.095
▁religion	-11.095
▁Räume	-11.095
▁Petition	-11.0951
▁argue	-11.0951
geschichte	-11.0952
▁cosy	-11.0952
▁generate	-11.0953
▁bestand	-11.0953
üm	-11.0955
▁qualifizierte	-11.0956
▁ersetzt	-11.0957
▁Water	-11.0959
angle	-11.0962
schloss	-11.0964
▁gone	-11.0964
▁vari	-11.0965
▁Cuba	-11.0966
▁bug	-11.0967
gelassen	-11.097
▁monument	-11.0971
▁anstatt	-11.0973
▁amtierende	-11.0973
▁heutige	-11.0977
Vor	-11.0977
rink	-11.0978
▁manufacturer	-11.098
▁educational	-11.0981
▁frame	-11.0982
▁Fle	-11.0985
hem	-11.0986
.”	-11.0986
meldung	-11.0989
▁gratulieren	-11.099
▁Religion	-11.0991
cin	-11.0991
schreiten	-11.0992
lly	-11.0992
▁Verringerung	-11.0993
▁Beziehung	-11.0993
▁inflation	-11.0993
▁Single	-11.0993
▁Prinzipien	-11.0994
ancy	-11.0995
▁impose	-11.0996
skonferenz	-11.0997
▁gap	-11.0999
▁doesn	-11.1
▁depending	-11.1005
word	-11.1006
sländer	-11.1007
▁Spar	-11.1007
▁Verteidigungs	-11.1009
▁representation	-11.1011
▁edge	-11.1012
▁collaboration	-11.1014
▁erlauben	-11.1014
▁finanziert	-11.1014
▁serviert	-11.1015
ais	-11.1015
▁destroy	-11.1018
das	-11.1018
94	-11.1027
▁techniques	-11.1029
▁amerikanische	-11.1029
но	-11.103
▁regularly	-11.1031
▁Vietnam	-11.1035
▁bottom	-11.1035
▁prompt	-11.1035
finden	-11.1037
▁happening	-11.1037
▁Beschlüsse	-11.1038
▁Av	-11.104
▁zufolge	-11.1046
▁Prä	-11.1047
cz	-11.1048
▁Hilfs	-11.1052
direct	-11.1052
stern	-11.1054
DF	-11.1055
▁Eu	-11.1055
▁Piazza	-11.1056
▁Taiwan	-11.1056
▁Zusätzlich	-11.1056
▁Adobe	-11.1056
▁nahezu	-11.1057
gebiete	-11.1059
▁Out	-11.1059
▁appointed	-11.1062
▁Fahrt	-11.1065
▁gewissen	-11.1065
▁Noch	-11.1071
bund	-11.1074
mu	-11.1075
▁staatlichen	-11.1077
blo	-11.1077
▁begrüßt	-11.1078
▁newspaper	-11.1078
▁technologische	-11.1078
▁Anwender	-11.1078
▁incentive	-11.1078
▁Anzeige	-11.1078
▁beruht	-11.1078
hung	-11.108
▁offices	-11.1081
late	-11.1081
▁ausgeschlossen	-11.1084
▁Pact	-11.1092
gründen	-11.1096
▁drug	-11.1096
▁Spr	-11.1096
▁Ansprüche	-11.1099
▁inhabitants	-11.1099
▁stylish	-11.1099
▁Versand	-11.11
▁Skype	-11.11
geführt	-11.1103
▁layer	-11.1103
▁Vorschlägen	-11.1103
▁perfekte	-11.1104
▁aufzunehmen	-11.1109
▁Verfahrens	-11.1113
▁Place	-11.1115
▁sehe	-11.1115
▁Karl	-11.1115
yard	-11.1117
52	-11.1119
▁günstige	-11.112
▁Kroatien	-11.1121
▁Arbeitsplatz	-11.1123
▁ferner	-11.1123
▁Sony	-11.1124
▁ultimately	-11.1126
lusive	-11.1129
üchte	-11.113
TRA	-11.1131
▁verbringen	-11.1132
tschaftswachstum	-11.1133
PO	-11.1135
▁früh	-11.1137
▁Besorgnis	-11.1142
▁expansion	-11.1142
▁understood	-11.1142
▁uneingeschränkt	-11.1142
▁Aktionsplan	-11.1142
▁Wähler	-11.1142
▁Stärke	-11.1142
▁aufgefordert	-11.1142
▁aktive	-11.1143
fahrer	-11.1143
gene	-11.1145
▁regulatory	-11.1146
lum	-11.1147
▁italienischen	-11.1147
head	-11.1151
▁manager	-11.1152
▁offenen	-11.1152
▁pal	-11.1153
▁Ausgabe	-11.1155
oid	-11.1156
reise	-11.1158
▁eure	-11.1158
▁Nahen	-11.116
▁jo	-11.1161
▁Farbe	-11.1161
▁gezwungen	-11.1164
▁Verpackung	-11.1164
▁verdient	-11.1164
▁stolz	-11.1164
▁consent	-11.1164
▁Stahl	-11.1166
▁fitness	-11.1166
▁Schönheit	-11.1166
▁Krankheiten	-11.1167
▁gold	-11.1168
▁1970	-11.1168
87	-11.1169
▁dev	-11.1171
▁bezahlen	-11.1171
▁proof	-11.1172
▁Plat	-11.1172
▁14.	-11.1172
▁Hostel	-11.118
▁Kompetenz	-11.1184
▁displayed	-11.1185
▁hängt	-11.1185
▁Konzern	-11.1185
▁Punkten	-11.1187
wart	-11.1187
▁Ehe	-11.1188
▁Deutschen	-11.1191
▁verschiedener	-11.1194
▁prä	-11.1198
▁Ministers	-11.1199
▁Cy	-11.12
▁Websites	-11.1201
▁Drittens	-11.1203
reit	-11.1203
cca	-11.1205
▁BSE	-11.1205
▁dich	-11.1206
▁nachhaltigen	-11.1207
▁Framework	-11.1207
▁Geschwindigkeit	-11.1207
▁geäußert	-11.1207
▁kontinuierlich	-11.1207
▁Hostelsclub	-11.1207
▁Unternehmer	-11.1208
▁commission	-11.1208
▁discount	-11.1208
▁natürlichen	-11.1209
flüge	-11.1209
volle	-11.1212
▁relaxation	-11.1213
▁Tel	-11.1217
tagen	-11.1219
bul	-11.122
▁audit	-11.122
▁optimale	-11.1221
Strategie	-11.1221
▁ausgesetzt	-11.1222
leitet	-11.1222
▁ernsthaft	-11.1223
ange	-11.1227
▁decline	-11.1229
▁Himmel	-11.1229
▁erzeugt	-11.1229
kapital	-11.1229
▁Metall	-11.123
▁Luxus	-11.123
▁islands	-11.123
leiten	-11.1231
abkommen	-11.1237
▁jener	-11.1237
▁klein	-11.1239
▁Ball	-11.1239
▁höchst	-11.1242
host	-11.1242
▁acknowledge	-11.1243
▁consult	-11.1248
▁kostet	-11.125
▁casino	-11.125
▁freiwillig	-11.1251
▁Zusammenhalt	-11.1251
media	-11.1252
▁Grafik	-11.1252
▁westlichen	-11.1255
ivity	-11.1255
▁colon	-11.1257
▁operational	-11.1259
▁delighted	-11.1259
ception	-11.126
▁divers	-11.126
imp	-11.1261
automat	-11.1266
▁Automat	-11.1269
sia	-11.127
▁Us	-11.127
▁konzentriert	-11.1272
▁revenue	-11.1272
▁SMEs	-11.1272
▁Food	-11.1273
▁competent	-11.1274
▁messages	-11.1279
urlaub	-11.128
▁Frank	-11.1283
He	-11.1284
Server	-11.1288
▁stored	-11.1288
▁bezug	-11.129
-01	-11.129
tract	-11.1291
▁proved	-11.1292
hether	-11.1293
▁Plenum	-11.1294
▁sample	-11.1294
▁avec	-11.1294
▁früheren	-11.1297
▁calm	-11.1298
UL	-11.1298
train	-11.1301
▁walls	-11.1303
Bu	-11.1304
informationen	-11.1305
kauf	-11.1307
rand	-11.1312
under	-11.1315
▁letztlich	-11.1316
▁Erlebnis	-11.1316
▁boost	-11.1316
▁Gewährleistung	-11.1316
▁kurzen	-11.1318
▁Know	-11.1319
▁northern	-11.1319
▁überein	-11.132
▁unmöglich	-11.132
▁signs	-11.1321
▁conditioning	-11.1322
▁ruhig	-11.1323
▁existieren	-11.1324
▁Sy	-11.1325
▁cat	-11.1327
▁mögliche	-11.1327
▁Gesch	-11.1329
mag	-11.1332
▁geeignete	-11.1334
Mobil	-11.1335
reisen	-11.1335
rät	-11.1336
▁Bulgarien	-11.1338
▁Perhaps	-11.1338
▁decisive	-11.1338
▁Kapazität	-11.1338
▁verleihen	-11.1338
▁doppelt	-11.1338
▁overcome	-11.1338
▁Strände	-11.1339
phy	-11.134
▁42	-11.1347
▁Legal	-11.1347
▁Ul	-11.1349
▁Wohl	-11.135
74	-11.1352
▁Cat	-11.1353
▁prize	-11.1356
▁employ	-11.1358
▁accident	-11.1359
▁communications	-11.136
▁earth	-11.136
▁Wichtig	-11.136
▁magazine	-11.1361
▁Erfüllung	-11.1361
präsent	-11.1361
isierte	-11.1362
▁minority	-11.1362
▁Viel	-11.1362
▁Putin	-11.1362
▁cutting	-11.1363
▁minimal	-11.1363
ned	-11.1363
▁painting	-11.1364
▁recording	-11.1365
▁Box	-11.1367
▁Plattform	-11.1369
gno	-11.137
▁Image	-11.1373
uel	-11.1376
rak	-11.1378
OW	-11.1378
▁Vereinbarungen	-11.1379
▁Korruption	-11.1382
▁destruction	-11.1382
▁parlamentarisch	-11.1382
▁protocol	-11.1382
▁Öffnung	-11.1382
▁Deswegen	-11.1382
▁Kapitel	-11.1382
marquis	-11.1382
▁east	-11.1384
▁formula	-11.1384
▁hundreds	-11.1385
▁pur	-11.1387
▁differ	-11.1388
AG	-11.1388
▁Vorstellung	-11.1389
▁Kabel	-11.1389
BO	-11.139
▁Konsens	-11.1391
▁künftigen	-11.1394
▁Funds	-11.1395
ios	-11.1396
General	-11.1398
▁lie	-11.1398
ago	-11.14
▁einheitlichen	-11.1401
vision	-11.1401
technisch	-11.1401
▁prison	-11.1402
bereit	-11.1402
▁customs	-11.1403
▁cooperate	-11.1404
▁Pläne	-11.1404
▁ethnic	-11.1404
ule	-11.1404
▁ought	-11.1404
▁owner	-11.1404
OM	-11.1407
▁Find	-11.1407
▁Wünsche	-11.1412
▁effiziente	-11.1412
▁achten	-11.1418
▁adopting	-11.1419
▁eingegangen	-11.142
▁ausgezeichnet	-11.1424
▁Sonne	-11.1425
▁herrscht	-11.1426
▁annehmen	-11.1427
projekte	-11.1427
▁Faktoren	-11.1429
81	-11.1429
▁Malta	-11.143
▁Aktiv	-11.143
▁oral	-11.1433
▁assure	-11.1434
treten	-11.1438
▁suites	-11.1439
▁faced	-11.1439
▁reported	-11.144
trans	-11.144
▁traditions	-11.1441
▁assets	-11.1442
basierte	-11.1443
▁65	-11.1448
▁vorbereitet	-11.1448
▁throw	-11.1449
▁Congress	-11.1449
▁sugar	-11.145
▁Autobahn	-11.145
▁buchen	-11.1454
▁10%	-11.1456
▁zuerst	-11.1456
chef	-11.1461
Go	-11.1462
▁Game	-11.1463
▁Webseiten	-11.1464
▁integriert	-11.147
▁library	-11.147
▁murder	-11.147
▁solar	-11.1471
fried	-11.1473
▁eigen	-11.1473
▁Stoffe	-11.1474
like	-11.1477
▁Anschluss	-11.1478
▁surroundings	-11.1479
▁MO	-11.1482
iven	-11.1482
stanz	-11.1486
iziert	-11.1486
lem	-11.1489
▁geltenden	-11.149
43	-11.1492
▁Werbung	-11.1493
▁Rechtsgrundlage	-11.1493
▁GDP	-11.1496
▁nieder	-11.1496
elect	-11.1504
▁directives	-11.1507
▁langfristige	-11.1511
bat	-11.1512
▁Hochschul	-11.1512
▁Washington	-11.1515
▁erleichtern	-11.1515
▁Kongress	-11.1515
на	-11.1515
▁Außenpolitik	-11.1517
▁appearance	-11.1518
selbe	-11.1518
wendung	-11.1518
▁Sterne	-11.1527
jährigen	-11.1529
TEN	-11.1529
▁Carl	-11.1531
▁faster	-11.1531
tergovernmental	-11.1532
▁Georgia	-11.1535
▁funktionieren	-11.1535
ination	-11.1536
▁Registrierung	-11.1537
▁observation	-11.1537
▁Access	-11.1537
▁kämpfen	-11.1538
prüfung	-11.1539
Wa	-11.1539
▁Fähigkeiten	-11.154
sprech	-11.1541
▁substance	-11.1541
▁succeed	-11.1542
Tra	-11.1543
rab	-11.1544
▁effectiveness	-11.1544
▁vorstellen	-11.1545
lation	-11.1546
▁Canon	-11.1548
▁Dun	-11.1548
▁zug	-11.1549
sprachen	-11.1553
melde	-11.1554
▁AC	-11.1554
▁Vorlage	-11.1555
▁Professor	-11.156
▁angepasst	-11.156
▁sprach	-11.156
▁entsteht	-11.1561
auch	-11.1563
▁Gesetzes	-11.1563
▁wann	-11.1564
▁ansprechen	-11.1565
▁edition	-11.1565
▁sichere	-11.1567
steig	-11.1567
person	-11.1568
▁divided	-11.1573
ließ	-11.1574
SD	-11.1576
▁Rund	-11.1577
mouth	-11.1579
Wi	-11.1581
▁Holiday	-11.1582
▁errichtet	-11.1582
▁vorrangig	-11.1582
▁multinational	-11.1583
▁anwesend	-11.1583
▁Friday	-11.1583
▁Transfer	-11.1583
▁Town	-11.1586
▁increases	-11.1586
▁zentralen	-11.1587
▁Hat	-11.1587
town	-11.1587
▁34	-11.1588
▁tro	-11.159
▁AD	-11.1592
fügen	-11.1596
▁pure	-11.1596
!!	-11.1599
▁Sammlung	-11.1605
▁accurate	-11.1605
▁liquid	-11.1605
▁Kre	-11.1605
lösungen	-11.1605
CR	-11.1605
trop	-11.1605
ssysteme	-11.1605
▁pillar	-11.1606
▁Ankunft	-11.1607
▁institutionelle	-11.1607
▁bomb	-11.1608
▁creates	-11.1609
▁zivil	-11.1611
▁Tibet	-11.1614
gam	-11.1616
gger	-11.1619
▁careful	-11.1621
▁opt	-11.1622
wissen	-11.1626
▁Konvent	-11.1626
▁Reduzierung	-11.1627
▁bemühen	-11.1627
▁geräumig	-11.1627
▁rapporteurs	-11.1628
▁bright	-11.1629
itis	-11.1631
flug	-11.1631
utter	-11.1632
▁gerichtet	-11.1634
▁Übergangs	-11.1635
▁musste	-11.1636
▁vous	-11.1639
▁bestimmter	-11.164
izer	-11.1641
▁Ausführungen	-11.1642
▁spezifischen	-11.165
▁Structural	-11.165
▁alcohol	-11.165
▁compatible	-11.165
▁courage	-11.165
▁facility	-11.165
▁maritime	-11.165
▁organisieren	-11.1651
▁personnel	-11.1651
▁WLAN	-11.1651
otto	-11.1652
▁restrict	-11.1653
uliert	-11.1658
firm	-11.1661
▁Archiv	-11.1664
▁visiting	-11.1667
strategie	-11.1667
non	-11.1667
▁mount	-11.1668
▁focused	-11.167
▁dates	-11.1672
▁Newsletter	-11.1673
▁Seminar	-11.1673
▁geboten	-11.1673
▁indicated	-11.1674
▁Gegenstand	-11.1674
▁Full	-11.1675
▁catch	-11.1676
▁showing	-11.1682
▁SP	-11.1684
▁Gemeinde	-11.1684
zel	-11.1688
wege	-11.1689
▁überzeugen	-11.169
▁certificate	-11.1695
▁Content	-11.1695
▁gift	-11.1696
▁Canada	-11.1697
▁liefert	-11.1697
▁electricity	-11.1697
▁700	-11.1698
▁brief	-11.17
▁updated	-11.1701
▁expand	-11.1701
tile	-11.1706
▁Space	-11.1707
Datei	-11.171
▁sah	-11.1713
▁sending	-11.1714
▁Komponenten	-11.1716
holt	-11.1717
rau	-11.1718
zentren	-11.1718
▁spoken	-11.1718
▁minister	-11.1719
▁variable	-11.1721
kla	-11.1722
turm	-11.1723
▁syn	-11.1724
nische	-11.1727
▁Erstellung	-11.1728
▁demanding	-11.173
rut	-11.173
▁nine	-11.1731
▁seeing	-11.1732
reicht	-11.1732
▁rapidly	-11.1733
▁konkret	-11.1735
rechnung	-11.1738
CP	-11.1739
▁Subsidiarität	-11.1741
▁Protection	-11.1742
▁Tief	-11.1743
tät	-11.1744
▁Within	-11.1744
▁Hostels	-11.1747
▁Rü	-11.1747
just	-11.1747
PP	-11.1749
▁flag	-11.1751
▁Stimmen	-11.1751
▁Hohen	-11.1753
▁kamen	-11.1754
▁Alm	-11.1757
▁Rob	-11.1757
▁settings	-11.1757
▁carbon	-11.1757
▁komme	-11.1759
▁mostly	-11.1761
vertrag	-11.1763
▁eliminate	-11.1764
▁konsequent	-11.1764
▁subsidiarity	-11.1764
▁exciting	-11.1764
▁verstärken	-11.1764
makers	-11.1764
▁Einbeziehung	-11.1765
▁resistance	-11.1765
▁brachte	-11.1765
▁lunch	-11.1765
▁Ltd	-11.1765
-3	-11.1766
▁stammen	-11.1766
▁everyday	-11.1767
▁winner	-11.1768
▁awarded	-11.177
▁Wechsel	-11.1773
▁proven	-11.1774
▁reserves	-11.1774
▁Alpen	-11.1774
▁freundliche	-11.1776
▁resolutions	-11.1778
VI	-11.1778
2000	-11.1782
than	-11.1782
▁Yes	-11.1782
▁Profil	-11.1783
▁sphere	-11.1783
krise	-11.1784
mond	-11.1785
lehr	-11.1785
check	-11.1786
▁principal	-11.1787
▁Ungarn	-11.1787
▁verbinden	-11.1787
▁transmission	-11.1788
▁wines	-11.1788
▁2009,	-11.1788
ifiziert	-11.1791
▁metro	-11.1792
▁profession	-11.1792
2,	-11.1796
▁Massage	-11.1798
fläche	-11.1806
svorschlag	-11.1807
▁grateful	-11.181
▁inclusion	-11.181
▁Nummer	-11.181
▁James	-11.1812
some	-11.1812
▁Visit	-11.1814
▁conflicts	-11.1814
▁transactions	-11.1817
▁komfortable	-11.1821
▁lokale	-11.1825
zar	-11.1826
▁centres	-11.1828
wenden	-11.183
▁Rezeption	-11.1831
▁functioning	-11.1831
▁detect	-11.1832
▁ergänzen	-11.1833
▁encounter	-11.1833
▁await	-11.1833
▁constitution	-11.1833
▁Bücher	-11.1833
▁nunmehr	-11.1834
▁Kaiser	-11.1834
▁Weltkrieg	-11.1836
▁Wandel	-11.1837
itch	-11.1838
lohn	-11.1839
▁tele	-11.1841
▁(3	-11.1842
▁index	-11.1843
▁migration	-11.1843
▁channels	-11.1844
server	-11.1845
▁desired	-11.1845
▁effizient	-11.1848
▁Fal	-11.185
▁occasions	-11.185
▁provider	-11.1852
▁Fahrzeuge	-11.1852
Software	-11.1855
eo	-11.1855
▁widely	-11.1855
▁Apple	-11.1856
▁Hungarian	-11.1856
▁Mexico	-11.1856
▁reduzieren	-11.1856
▁pollution	-11.1856
▁getrennt	-11.1856
▁Lounge	-11.1856
▁Page	-11.186
▁künftige	-11.1861
▁workshop	-11.1862
▁IV	-11.1862
▁PRO	-11.1864
▁Ausgang	-11.1864
illi	-11.1867
ways	-11.1867
fällen	-11.1871
▁dance	-11.1877
▁Schon	-11.1879
▁Zypern	-11.1879
▁beteiligen	-11.1879
▁vorlegen	-11.188
▁Japanese	-11.188
bell	-11.1881
▁bezahlt	-11.1881
▁woman	-11.1882
road	-11.1885
motiv	-11.1886
▁solange	-11.1891
AU	-11.1892
energie	-11.1892
fic	-11.1892
▁Betrag	-11.1893
▁printing	-11.1894
▁dead	-11.19
▁Copenhagen	-11.1902
▁beschäftigen	-11.1902
▁credibility	-11.1902
▁Anreiz	-11.1903
zusammenarbeiten	-11.1903
▁Common	-11.1905
ité	-11.1908
▁categories	-11.191
▁Sel	-11.191
▁Gefahren	-11.1911
iva	-11.1913
▁Steuern	-11.1916
▁chinesischen	-11.1922
82	-11.1923
▁chapter	-11.1926
▁Netze	-11.1928
▁vereinbart	-11.1929
pm	-11.193
▁functional	-11.1931
fully	-11.1931
space	-11.1931
▁opinions	-11.1935
▁behalten	-11.1936
▁knows	-11.1936
▁Cho	-11.1937
streit	-11.1937
▁meant	-11.1938
▁involves	-11.194
cla	-11.1941
▁beendet	-11.1947
▁Ernährung	-11.1949
▁accompanied	-11.1949
▁extraordinary	-11.1949
▁Gleichstellung	-11.1949
▁Renten	-11.195
bewegung	-11.195
▁strategische	-11.1951
▁passende	-11.1954
▁Objekt	-11.1954
terrasse	-11.1957
▁constitute	-11.1959
▁immigrants	-11.1962
▁virtual	-11.1963
]].	-11.1963
▁flights	-11.1964
▁Amendments	-11.1968
iser	-11.197
▁centuries	-11.1972
▁province	-11.1972
▁uniform	-11.1972
▁kontrolliert	-11.1972
▁undertaking	-11.1973
▁Prague	-11.1973
▁unfair	-11.1974
aya	-11.1975
▁kostenlose	-11.1975
▁Problems	-11.1977
▁demonstrated	-11.1978
▁Var	-11.1982
aj	-11.1982
▁echten	-11.1982
pet	-11.1986
▁gespielt	-11.1989
▁Textil	-11.1989
▁Four	-11.199
▁Michel	-11.1991
▁Kol	-11.1991
iker	-11.1992
▁WC	-11.1992
zip	-11.1993
dokument	-11.1996
▁possibly	-11.1996
▁Zucker	-11.1999
▁legitimate	-11.1999
weil	-11.2
büro	-11.2002
KE	-11.2003
gesch	-11.2003
hersteller	-11.2004
dom	-11.2006
▁cra	-11.2007
▁einzusetzen	-11.2011
effekt	-11.2011
▁minor	-11.2013
mitteln	-11.2014
▁gardens	-11.2015
▁Fra	-11.2017
▁controlled	-11.2018
▁österreichische	-11.2019
▁Tourism	-11.2019
II	-11.202
▁Quellen	-11.202
▁Protest	-11.2022
▁sozialer	-11.2022
▁deadline	-11.2024
▁charm	-11.2024
▁kosten	-11.2027
▁Tausende	-11.2027
▁Op	-11.2029
produkt	-11.2029
▁Deutsch	-11.2029
▁commit	-11.203
roh	-11.2031
TP	-11.2032
▁Road	-11.2034
▁Marktes	-11.2034
▁documentation	-11.2034
▁Schweizer	-11.2035
▁Schuld	-11.2035
MB	-11.2036
▁Arch	-11.2039
pes	-11.204
▁Brazil	-11.2041
▁Insbesondere	-11.2043
▁executive	-11.2043
▁wrote	-11.2043
▁broadcast	-11.2043
▁Chancen	-11.2045
▁praktische	-11.2047
▁Mitgliedschaft	-11.2047
▁exc	-11.2053
▁EP	-11.2053
EX	-11.2057
▁towns	-11.2065
▁strategischen	-11.2066
▁referendum	-11.2066
▁voluntary	-11.2066
▁tobacco	-11.2066
▁Solar	-11.2067
freien	-11.2067
▁Dreh	-11.2068
▁constitutional	-11.2068
▁wheel	-11.2068
▁Women	-11.207
▁Mobile	-11.2072
▁answers	-11.2073
▁20%	-11.2073
fit	-11.2076
▁humanitäre	-11.2079
▁fleet	-11.208
▁64	-11.2081
▁owners	-11.2082
TR	-11.2086
▁Dia	-11.2087
▁commun	-11.2088
▁replaced	-11.2088
▁Consumer	-11.209
▁Sudan	-11.2091
▁Argument	-11.2091
illo	-11.2092
▁interessant	-11.2094
PM	-11.2095
▁pose	-11.2098
▁Institut	-11.2099
▁waters	-11.2105
ui	-11.2106
möglich	-11.211
▁tourists	-11.211
fä	-11.2112
▁hor	-11.2112
▁Wiederaufbau	-11.2114
▁university	-11.2114
▁weitgehend	-11.2114
▁didn	-11.2114
▁Has	-11.2115
▁Charles	-11.2115
▁Hügel	-11.2115
▁pursue	-11.2119
view	-11.212
ison	-11.212
▁aktuell	-11.212
▁Amt	-11.2121
▁concluded	-11.2124
▁Travel	-11.2129
▁Steuerung	-11.2131
läng	-11.2134
▁aufnehmen	-11.2135
▁emerging	-11.2137
▁gefährdet	-11.2137
▁satisfy	-11.2137
▁welfare	-11.2137
▁Soviet	-11.2137
läufe	-11.2138
▁milk	-11.2138
▁trafficking	-11.2138
▁resolved	-11.2139
▁confront	-11.2139
▁Hamas	-11.2141
▁verteilt	-11.2141
Version	-11.2142
gua	-11.2143
▁attach	-11.2145
▁input	-11.215
▁connections	-11.2151
▁Kandidaten	-11.2157
▁kurzfristig	-11.2161
▁statistics	-11.2161
▁Meeting	-11.2161
▁incident	-11.2161
ians	-11.2161
▁Besides	-11.2161
▁Akteure	-11.2161
pläne	-11.2162
▁geistige	-11.2163
gres	-11.2163
▁tight	-11.2164
ziehung	-11.2167
region	-11.2168
▁Kirk	-11.217
▁Grün	-11.2171
asse	-11.2172
▁Mad	-11.2173
▁enjoyed	-11.2175
▁passenger	-11.2176
sser	-11.2178
▁Ruf	-11.2178
▁Leitung	-11.2179
wissenschaft	-11.218
83	-11.2182
schlüsse	-11.2182
▁follows	-11.2182
ituated	-11.2183
fold	-11.2183
▁Mountain	-11.2185
▁Atlantic	-11.2185
▁Education	-11.2185
▁Übertragung	-11.2185
▁ongoing	-11.2186
▁shipping	-11.2186
▁Description	-11.2186
▁Ausflüge	-11.2187
sinn	-11.2188
▁Max	-11.2189
▁fur	-11.2193
IX	-11.2197
klick	-11.2201
▁Games	-11.2202
FT	-11.2202
91	-11.2203
▁erfolgreichen	-11.2204
▁vorherige	-11.2207
größe	-11.2209
▁Auge	-11.2209
▁behaviour	-11.2209
▁judicial	-11.2209
▁proposing	-11.2209
▁Verbindungen	-11.2209
▁hinzufügen	-11.2209
▁Lobby	-11.2209
▁pilot	-11.221
▁Edit	-11.221
▁finished	-11.2212
bezogene	-11.2213
▁Zahlung	-11.2215
▁gering	-11.2216
dent	-11.2216
▁distributed	-11.2217
▁BIP	-11.2218
zio	-11.2222
szli	-11.2224
▁recorded	-11.2225
Da	-11.2226
▁Kopie	-11.2227
zieren	-11.2228
▁trace	-11.223
▁respected	-11.2232
▁Portuguese	-11.2233
▁transatlanti	-11.2233
▁Sky	-11.2233
▁schlechte	-11.2236
bedarf	-11.2237
▁rechtlichen	-11.2237
zähl	-11.224
▁vary	-11.2242
▁Sat	-11.2243
▁jenen	-11.2246
▁enorme	-11.2252
▁vorbei	-11.2255
util	-11.2256
▁Verbreitung	-11.2257
▁Café	-11.2257
▁preparing	-11.2257
schwe	-11.2257
▁partly	-11.2258
▁blind	-11.2258
▁eingehalten	-11.2258
▁Monday	-11.2258
▁Project	-11.2258
▁Unterhaltung	-11.2259
ül	-11.2261
▁musical	-11.2262
▁Os	-11.2262
▁Rohstoff	-11.2263
▁Northern	-11.2263
▁Lehrer	-11.2269
▁vorhandenen	-11.2271
sieg	-11.2271
▁component	-11.2274
Wir	-11.2277
▁imposed	-11.2278
▁stronger	-11.2278
▁adventure	-11.2281
▁Puerto	-11.2281
▁BMW	-11.2281
▁Account	-11.2281
▁Castle	-11.2281
▁Bemerkungen	-11.2285
▁textile	-11.2285
▁Filter	-11.2286
fährt	-11.2289
▁manufacture	-11.229
▁elegante	-11.229
▁wiederholen	-11.2291
imo	-11.2294
lange	-11.2297
wan	-11.2301
kontroll	-11.2303
▁maintaining	-11.2303
▁Opera	-11.2304
▁Who	-11.2305
▁plenty	-11.2305
▁Würde	-11.2305
▁empfangen	-11.2305
struc	-11.2306
▁OR	-11.2307
▁Dan	-11.2309
▁Traum	-11.2309
▁Prof	-11.231
uring	-11.2312
▁tickets	-11.2318
▁Wesen	-11.2319
▁breach	-11.232
▁taxation	-11.232
▁individuellen	-11.2322
hnt	-11.2322
▁DA	-11.2322
▁Tar	-11.2324
▁mitten	-11.2325
▁appeared	-11.2326
▁army	-11.2326
▁Email	-11.2326
php	-11.2327
▁parliaments	-11.2329
▁Bibliothek	-11.2329
▁Kampagne	-11.2329
institut	-11.2329
▁hearing	-11.2331
▁Spend	-11.2333
▁percent	-11.2334
▁existiert	-11.2335
▁examine	-11.2335
▁visited	-11.2337
▁neun	-11.2338
▁Befugnisse	-11.2339
▁Wal	-11.2343
▁declared	-11.2343
▁Förder	-11.2344
▁carrying	-11.2346
▁Event	-11.2349
▁gear	-11.2353
▁Assembly	-11.2354
▁comparison	-11.2354
▁Alexander	-11.2354
▁Fer	-11.2354
▁comprise	-11.2354
▁definitely	-11.2356
▁Bade	-11.2356
▁Prag	-11.2356
bleiben	-11.2359
▁2012	-11.2359
▁Thirdly	-11.236
▁Urlaubs	-11.2361
▁stärkere	-11.2362
▁banking	-11.2367
▁mittel	-11.2368
▁ré	-11.2374
▁destroyed	-11.2374
▁Hohe	-11.2375
▁machte	-11.2378
▁nevertheless	-11.2378
▁angewandt	-11.2378
commerce	-11.2378
▁Herkunft	-11.2378
▁Statut	-11.2378
kunst	-11.2378
▁corruption	-11.2379
▁2008.	-11.2379
▁Kriegs	-11.238
lz	-11.238
▁committees	-11.2383
▁Gespräch	-11.2384
▁massage	-11.2386
ès	-11.2386
▁beigetragen	-11.2386
▁heating	-11.2386
▁addresses	-11.2389
▁Organe	-11.239
▁genannte	-11.2392
▁Heil	-11.2399
▁plate	-11.24
▁Agriculture	-11.2402
▁authentic	-11.2402
▁occupation	-11.2402
▁verbindet	-11.2402
▁Medizin	-11.2402
▁rechtzeitig	-11.2402
SK	-11.2403
turn	-11.2403
▁55	-11.2405
▁hinweg	-11.2407
▁surprise	-11.2408
▁Halb	-11.2413
▁usual	-11.2413
orte	-11.2413
▁ursprünglich	-11.2413
▁leg	-11.2415
2009	-11.2417
▁sym	-11.242
ält	-11.2422
▁hundred	-11.2423
▁Spitzen	-11.2424
▁Bereitstellung	-11.2427
▁departure	-11.2427
▁magnificent	-11.2427
▁Allianz	-11.2427
▁AKP	-11.2427
▁letztendlich	-11.2427
▁eastern	-11.2429
▁organise	-11.243
▁Guide	-11.2431
cycl	-11.2431
▁burn	-11.2432
füllt	-11.2432
▁globalisation	-11.2433
▁angegebenen	-11.2433
85	-11.2435
▁angelegt	-11.2438
traf	-11.244
▁Gelder	-11.2442
▁offenbar	-11.2444
▁zukünftige	-11.2445
cit	-11.2447
Chi	-11.2447
▁stehenden	-11.2448
▁tab	-11.245
▁Reinigung	-11.2452
▁Wissens	-11.2452
▁entwickelten	-11.2455
▁Demo	-11.2455
vy	-11.2455
▁slightly	-11.2456
né	-11.2457
Wo	-11.2457
▁direkten	-11.2457
stürz	-11.2458
kern	-11.246
▁Pay	-11.246
▁editor	-11.2461
sendung	-11.2466
kro	-11.247
▁sin	-11.2471
gewinn	-11.2471
stimmt	-11.2471
Un	-11.2472
▁containing	-11.2473
▁driver	-11.2473
▁applying	-11.2474
▁Weil	-11.2475
▁Gerechtigkeit	-11.2476
▁spectacular	-11.2476
Applause	-11.2476
▁flood	-11.2476
▁helps	-11.2476
▁knapp	-11.2476
▁Gerade	-11.2477
▁contacts	-11.2478
oriented	-11.2478
udi	-11.248
▁Partnern	-11.248
zahlen	-11.248
New	-11.2483
ador	-11.2488
▁Verlauf	-11.2493
ufgrund	-11.2493
uelle	-11.2496
lian	-11.2496
Länder	-11.2498
▁arrived	-11.25
▁birth	-11.25
▁Hungary	-11.2501
▁Tochter	-11.2501
▁honest	-11.2501
▁films	-11.2502
▁pieces	-11.2508
▁Rose	-11.2509
▁difficulty	-11.251
▁za	-11.251
▁height	-11.2511
▁ACP	-11.2513
▁Genau	-11.2514
Seite	-11.2514
▁colours	-11.2518
3%	-11.2518
real	-11.2519
▁passion	-11.2524
▁struggle	-11.2525
▁angewendet	-11.2526
▁rain	-11.2526
▁windows	-11.2526
kirche	-11.2529
▁crimes	-11.2532
felder	-11.2533
▁orders	-11.2534
arbeiter	-11.2535
▁Montag	-11.2536
▁civilian	-11.2537
▁Beste	-11.2539
▁ven	-11.2542
▁Cur	-11.2545
▁Son	-11.2547
▁Terror	-11.2549
stä	-11.255
▁insert	-11.255
▁äußern	-11.255
▁Next	-11.255
iver	-11.2551
▁Rio	-11.2551
▁Empfang	-11.2551
▁composition	-11.2552
▁Having	-11.2552
▁Spaß	-11.2553
79	-11.2553
spann	-11.2558
▁Nos	-11.2558
▁acting	-11.2561
graph	-11.2561
▁actively	-11.2561
▁defect	-11.2561
▁ersetzen	-11.2566
▁Sorgen	-11.2567
▁Vorschlags	-11.2567
BS	-11.2567
▁segment	-11.2569
▁info	-11.257
▁schlägt	-11.2571
▁standing	-11.2572
▁Visa	-11.2572
▁Strasse	-11.2573
gegriffen	-11.2574
▁Milan	-11.2574
leiter	-11.2575
▁Belgium	-11.2575
▁narrow	-11.2575
▁geliefert	-11.2575
▁rational	-11.2575
▁elektronische	-11.2577
▁satisfied	-11.2577
scht	-11.2577
▁Apart	-11.2578
▁Schulen	-11.2579
▁raw	-11.2581
Ö	-11.2582
ritten	-11.2582
▁Poly	-11.2583
▁individuell	-11.2583
▁43	-11.2583
Produkt	-11.2584
▁Untersuchungen	-11.2585
▁höheren	-11.2586
stitu	-11.2589
clo	-11.259
▁gewünscht	-11.2592
▁Oder	-11.2592
▁proposes	-11.2593
hö	-11.2595
▁Staates	-11.2595
▁compete	-11.2595
operation	-11.2595
ulated	-11.2598
▁Zell	-11.2598
▁Diplom	-11.26
▁Kopenhagen	-11.26
▁Verzögerung	-11.26
▁delicious	-11.26
▁luxurious	-11.26
▁survey	-11.26
▁Käufer	-11.26
▁Tennis	-11.26
▁Fünf	-11.26
▁strike	-11.26
▁Fol	-11.26
▁mündliche	-11.26
▁Fußball	-11.26
hot	-11.2604
▁Männern	-11.2612
▁gemütliche	-11.2612
▁mild	-11.2614
▁fuer	-11.2615
▁adjustment	-11.2615
Mar	-11.2616
▁willing	-11.2619
europa	-11.2619
▁Sant	-11.262
▁legitim	-11.2621
▁cell	-11.2622
▁Ansichten	-11.2622
▁Potenzial	-11.2625
▁produzieren	-11.2625
▁supplies	-11.2625
▁Herbst	-11.2625
▁packaging	-11.2625
▁decade	-11.2626
▁providers	-11.2627
lesen	-11.2627
▁Route	-11.2628
▁Freitag	-11.2629
▁drivers	-11.2632
▁SAP	-11.2637
▁starts	-11.2637
▁Verkaufs	-11.264
märkte	-11.2641
▁palästinensisch	-11.2645
rier	-11.2648
▁cancer	-11.2649
speicher	-11.2649
▁warning	-11.2649
▁eventually	-11.265
▁identified	-11.265
▁Inflation	-11.265
▁Wett	-11.265
herr	-11.2651
▁drinks	-11.2654
▁revision	-11.2655
reform	-11.2658
transport	-11.2659
▁organize	-11.2661
▁Light	-11.2661
▁looks	-11.2665
▁suppliers	-11.2666
ament	-11.2666
▁nützlich	-11.2667
HI	-11.2671
kling	-11.2672
▁measurement	-11.2672
zusehen	-11.2674
▁plenary	-11.2675
itiv	-11.2675
▁Freiheiten	-11.2676
▁Städten	-11.2677
▁module	-11.2677
▁Gesellschaften	-11.268
bedingt	-11.2682
▁Following	-11.2683
▁illegalen	-11.2684
▁Desk	-11.2687
▁Leg	-11.269
▁einzigartigen	-11.2691
▁Islands	-11.2691
▁instructions	-11.2696
▁95	-11.2699
▁Thursday	-11.27
▁female	-11.27
▁Meister	-11.27
▁Parameter	-11.27
▁artistic	-11.27
▁Anlass	-11.2703
▁.....	-11.2704
▁updates	-11.2707
▁Sind	-11.2707
fli	-11.2708
kunde	-11.2709
leih	-11.2709
schalten	-11.271
▁teaching	-11.2712
HU	-11.2714
42	-11.2715
gia	-11.2716
▁entwickelte	-11.2718
▁nett	-11.2724
▁Geburt	-11.2725
gefühl	-11.2725
▁Arzneimittel	-11.2725
▁unzureichend	-11.2725
▁verringern	-11.2725
▁trouble	-11.2725
▁Exchange	-11.2725
ziele	-11.2727
▁thousand	-11.2727
▁2007.	-11.2727
▁arguments	-11.2729
▁Porto	-11.2729
drückt	-11.273
▁correctly	-11.273
▁guard	-11.2732
▁eingebracht	-11.2732
▁stick	-11.2734
gest	-11.2735
nehmer	-11.2737
▁Ak	-11.2738
▁prime	-11.2738
▁Emp	-11.2739
▁Golden	-11.2742
▁eingestellt	-11.2743
Qu	-11.2743
ural	-11.2746
▁politically	-11.2747
▁beeindruckend	-11.275
▁receiving	-11.275
▁erkannt	-11.275
▁Überlegungen	-11.275
▁talent	-11.2751
▁verkaufen	-11.2751
▁Projekten	-11.2752
▁langfristig	-11.2753
▁enger	-11.2754
▁Amerikaner	-11.2755
▁vermitteln	-11.2756
▁undermine	-11.2757
▁vorzulegen	-11.2757
▁HTML	-11.2757
▁getragen	-11.2757
aki	-11.2759
uda	-11.276
ierungen	-11.276
▁bislang	-11.2763
▁{	-11.2763
▁Deine	-11.2764
▁Pic	-11.2764
willig	-11.2765
84	-11.2766
▁Grünen	-11.2768
cco	-11.2768
▁effektive	-11.2768
institutionellen	-11.2772
stone	-11.2773
▁Abkommens	-11.2773
kä	-11.2774
▁corresponding	-11.2774
▁Bekannt	-11.2776
▁Brasilien	-11.2776
▁Respekt	-11.2776
▁football	-11.2776
▁chemische	-11.2777
▁correspond	-11.2777
assi	-11.2778
▁blieb	-11.2778
▁miles	-11.2778
▁Eurozone	-11.2779
▁realistic	-11.2781
▁aktivieren	-11.2784
▁Gute	-11.2785
pped	-11.2786
▁elektronischen	-11.2789
lag	-11.2791
▁Anna	-11.2792
ière	-11.2794
▁ice	-11.2795
▁ES	-11.2796
orientierte	-11.2798
▁reli	-11.28
gehoben	-11.2801
▁Widerspruch	-11.2801
▁verbindlich	-11.2801
▁vernünftig	-11.2805
▁Stiftung	-11.2805
▁Darstellung	-11.2809
onic	-11.2809
▁Kontrollen	-11.2809
mitglied	-11.2809
▁Mitarbeitern	-11.2811
▁Playa	-11.2811
▁Qui	-11.2812
▁ring	-11.2814
▁ships	-11.2815
keiten	-11.2816
spielen	-11.2817
▁cleaning	-11.2817
▁Bestimmung	-11.2817
▁virus	-11.2818
▁könnt	-11.2818
300	-11.2819
▁Like	-11.282
▁Optionen	-11.2822
SM	-11.2825
▁Nachde	-11.2826
▁shadow	-11.2826
▁Rechnungshof	-11.2826
▁Louis	-11.2826
▁exclusion	-11.2826
▁federal	-11.2826
▁servi	-11.2827
▁berichtet	-11.2828
▁tennis	-11.2828
▁Begleit	-11.2829
dies	-11.2829
agentur	-11.2833
cli	-11.2833
systemen	-11.2834
law	-11.2834
▁Satelliten	-11.2835
▁Call	-11.2837
▁tritt	-11.2838
▁Wochenende	-11.2838
▁Dich	-11.2841
INE	-11.2842
▁Mä	-11.2843
▁Kle	-11.2844
▁ou	-11.2845
▁ländliche	-11.2845
▁fourth	-11.285
▁courts	-11.2851
▁bewährt	-11.2852
▁zerstört	-11.2852
▁Belgien	-11.2852
▁inspection	-11.2852
▁specified	-11.2852
europäischen	-11.2853
hood	-11.2854
▁Charta	-11.2855
▁rising	-11.2856
▁unlike	-11.2857
▁Professional	-11.2857
▁formed	-11.2857
beschreibung	-11.2858
market	-11.286
▁Kontakte	-11.286
▁Gottes	-11.286
▁firms	-11.2864
uli	-11.2865
alisierung	-11.2867
▁Schlag	-11.2867
▁imagine	-11.2871
suche	-11.2871
izen	-11.2871
wandel	-11.2872
ographic	-11.2874
3/	-11.2874
spräsident	-11.2875
▁Kollegin	-11.2877
▁Glaubwürdigkeit	-11.2877
▁brutal	-11.2877
▁beantworten	-11.2878
▁Hardware	-11.2878
▁minorities	-11.2878
▁stammt	-11.2878
klasse	-11.2882
kampf	-11.2882
▁realistisch	-11.2883
▁regarded	-11.2888
▁Offen	-11.2888
dreh	-11.2889
▁Budgets	-11.2891
▁Plus	-11.2894
▁herum	-11.2896
▁fehlende	-11.2899
▁Mallorca	-11.2903
▁Stockholm	-11.2903
▁empfohlen	-11.2903
▁LateRooms	-11.2903
▁predict	-11.2904
▁sight	-11.291
▁VAT	-11.2911
▁countryside	-11.2912
▁Philipp	-11.2912
▁Schu	-11.2913
▁niedriger	-11.2915
▁Block	-11.2915
lagerung	-11.2917
▁Jahrzehnt	-11.2919
▁deals	-11.2919
▁characters	-11.292
ckel	-11.292
wirken	-11.2921
seitig	-11.2921
▁exklusive	-11.2922
▁Motiv	-11.2924
steuern	-11.2924
▁showed	-11.2924
▁Preisen	-11.2928
▁vulnerable	-11.2929
▁Album	-11.2929
▁Belastung	-11.2929
▁horizontal	-11.2929
▁seminar	-11.2929
▁song	-11.2931
▁2013	-11.2933
▁Sir	-11.2934
▁tank	-11.2934
▁Point	-11.2935
▁ausgewogene	-11.2938
▁DIE	-11.2943
▁Sohn	-11.2948
motion	-11.2949
5)	-11.2949
▁installieren	-11.295
ahn	-11.295
clu	-11.2951
netze	-11.2953
▁Resolution	-11.2955
▁gallery	-11.2955
▁behoben	-11.2955
▁capture	-11.2956
hafte	-11.2958
▁farming	-11.2958
▁Hill	-11.2959
▁crew	-11.2961
▁Dritten	-11.2961
Ad	-11.2961
angebote	-11.2963
▁Darum	-11.2963
▁heading	-11.2965
▁Cel	-11.2968
▁genügend	-11.2969
▁Marke	-11.297
dul	-11.2973
▁concentrate	-11.2974
▁recognize	-11.2978
▁Luxemburg	-11.298
▁Plätze	-11.298
▁verteidigen	-11.298
▁housing	-11.298
▁amenities	-11.2981
▁ultra	-11.2981
▁langjährige	-11.2981
▁Saison	-11.2981
NI	-11.2982
▁Palm	-11.2983
-/	-11.2983
will	-11.2986
▁rechtliche	-11.2986
yp	-11.2988
anische	-11.2989
aux	-11.2989
NO	-11.299
▁archive	-11.2991
▁boy	-11.2992
EI	-11.2999
Ra	-11.3
▁italienische	-11.3
▁schlagen	-11.3001
NET	-11.3002
▁mittleren	-11.3005
▁Defizit	-11.3006
▁eingeleitet	-11.3007
▁Quality	-11.3008
haben	-11.3008
▁debates	-11.301
▁western	-11.301
▁wohnen	-11.3011
kle	-11.3012
▁Haar	-11.3012
▁della	-11.3014
▁def	-11.3014
▁integrate	-11.3015
▁Staff	-11.3017
▁toilet	-11.3018
▁Zuge	-11.3019
▁Weiteren	-11.3023
rauch	-11.3028
▁Mrd	-11.303
▁vorgestellt	-11.3031
wendet	-11.3031
atic	-11.3031
▁legally	-11.3032
jpg	-11.3032
▁inklusive	-11.3032
▁rely	-11.3034
wirtschaftliche	-11.3035
PI	-11.3035
▁Parkplatz	-11.3036
▁euros	-11.3037
▁supplier	-11.3041
tau	-11.3041
senden	-11.3042
▁gewünschte	-11.3042
▁villages	-11.3042
▁Portal	-11.3043
gewicht	-11.3047
MD	-11.3047
weiß	-11.3048
eich	-11.3052
▁Sar	-11.3054
▁Migration	-11.3058
▁abstimmen	-11.3058
▁communicate	-11.3058
▁gezielt	-11.3059
VA	-11.3059
▁proceedings	-11.3059
▁zugrunde	-11.3059
▁Thailand	-11.3059
▁Islamic	-11.3062
▁duties	-11.3063
▁Song	-11.3064
▁Schlacht	-11.3065
▁Normal	-11.3065
▁Bonus	-11.3066
▁Ly	-11.3071
unch	-11.3072
▁Konflikte	-11.3075
born	-11.3076
▁breiten	-11.3076
▁Politiken	-11.3077
2%	-11.3078
rac	-11.3078
EE	-11.3079
tieren	-11.3079
▁supplement	-11.3083
inner	-11.3084
▁Stuttgart	-11.3084
▁advocate	-11.3084
▁ordnungsgemäß	-11.3084
▁Sonntag	-11.3084
▁twenty	-11.3084
▁renowned	-11.3084
▁ceiling	-11.3085
▁bonus	-11.3085
▁Schnell	-11.3085
▁Tabelle	-11.3085
▁dauert	-11.3089
geschnitten	-11.3089
▁Wu	-11.309
▁Wolf	-11.3091
▁Wetter	-11.3096
lumin	-11.3103
▁generated	-11.3108
freie	-11.3108
▁presents	-11.3108
▁evaluate	-11.3111
▁disabled	-11.3111
▁unabhängige	-11.3111
▁Brief	-11.3112
▁Trag	-11.3113
▁Vorhaben	-11.3113
▁Tabak	-11.3118
▁confirmation	-11.3119
▁ill	-11.3125
▁CAP	-11.3128
▁dependent	-11.3129
konferenz	-11.3131
▁Klasse	-11.3131
duct	-11.3134
Th	-11.3135
▁philosophy	-11.3137
▁significance	-11.3137
▁ecological	-11.3137
▁absurd	-11.3137
▁fördert	-11.3137
▁personenbezogen	-11.3137
ermaßen	-11.3137
ography	-11.3137
dienstleistungen	-11.3137
uell	-11.3138
▁interview	-11.3138
▁Federation	-11.3139
▁neutral	-11.3141
▁wunderschönen	-11.3142
fil	-11.3142
▁Verteilung	-11.3143
▁wirkt	-11.3143
FS	-11.3147
▁Erhaltung	-11.3149
▁USS	-11.3149
jet	-11.3152
▁Gross	-11.3152
▁Host	-11.3152
Mitglied	-11.3152
Mitgliedstaaten	-11.3152
count	-11.3154
lett	-11.3155
friendly	-11.3156
▁ehemalige	-11.3158
▁Egypt	-11.3161
▁Aqua	-11.3165
▁greatly	-11.3165
▁Leid	-11.3166
cchi	-11.3167
▁untersucht	-11.317
rik	-11.3171
▁killed	-11.3177
▁heran	-11.3179
▁weist	-11.3181
▁dahin	-11.3182
▁topics	-11.3185
▁Tätigkeiten	-11.3188
▁gearbeitet	-11.3188
▁Rückkehr	-11.319
▁gründlich	-11.319
▁iPhone	-11.319
▁satisfaction	-11.319
▁Willkommen	-11.3191
dol	-11.3192
▁Armee	-11.3201
mbo	-11.3202
President	-11.3206
▁Bin	-11.3209
schul	-11.3209
▁Extra	-11.321
oci	-11.3211
▁aussprechen	-11.3211
▁afford	-11.3213
▁Family	-11.3216
▁kontaktieren	-11.3216
▁romantic	-11.3216
▁registriert	-11.3216
▁betreiben	-11.3217
▁Vista	-11.3222
Net	-11.3223
▁Seele	-11.3223
▁Given	-11.3223
▁reveal	-11.3225
▁Mol	-11.3227
▁Festplatte	-11.3229
▁AND	-11.3231
▁doors	-11.3231
▁Berge	-11.3231
▁Handy	-11.3232
▁mitteilen	-11.3232
▁erwähnen	-11.3234
strasse	-11.3234
▁enabled	-11.3234
▁Cent	-11.3238
zubringen	-11.3242
▁Freizügigkeit	-11.3243
▁anbelangt	-11.3243
▁großzügig	-11.3243
▁gestattet	-11.3243
▁Heizung	-11.3243
▁Nachbarschaft	-11.3243
kö	-11.3244
sstrategie	-11.3247
▁biologische	-11.3248
▁Cro	-11.325
▁wertvolle	-11.325
▁concepts	-11.3251
▁Reisen	-11.3252
▁hierbei	-11.3253
trat	-11.3254
▁Kha	-11.3257
▁Transaktion	-11.3258
▁Sozialdemokrat	-11.3258
▁refers	-11.3264
▁entscheidender	-11.3264
▁Chile	-11.3265
runde	-11.3268
▁Referenz	-11.3269
▁erstmals	-11.3269
▁Katalog	-11.3269
▁hervorgehoben	-11.3269
▁Schnee	-11.327
▁Entspannung	-11.327
▁wireless	-11.327
▁allzu	-11.3271
▁Look	-11.3274
▁labor	-11.3274
orientiert	-11.3275
▁crop	-11.3275
▁bay	-11.3276
gemäß	-11.3277
▁adapted	-11.3278
heil	-11.328
nicht	-11.328
▁Have	-11.3282
▁Freunden	-11.3282
▁patient	-11.3283
▁adults	-11.3285
▁Balkans	-11.3286
▁resource	-11.3286
blich	-11.3287
ekt	-11.3288
▁Sur	-11.3289
▁Märkten	-11.329
▁wunderschöne	-11.3291
▁mental	-11.3292
HR	-11.3294
▁enge	-11.3294
▁complement	-11.3296
▁nördlich	-11.3296
▁Civil	-11.3296
▁antworten	-11.3296
▁Passwort	-11.3296
▁Gate	-11.3298
ín	-11.3298
▁Abfall	-11.3298
▁Pflege	-11.3299
rug	-11.3299
▁forests	-11.3301
▁geraten	-11.3301
artige	-11.3302
planung	-11.3302
▁Alltag	-11.3304
▁meal	-11.3306
▁internen	-11.3306
linien	-11.3309
▁Tanz	-11.3312
▁kleines	-11.3313
DP	-11.3313
▁Nein	-11.3313
Vertrag	-11.3315
▁Nachricht	-11.3315
én	-11.3316
▁tree	-11.3318
▁kom	-11.332
▁Unterkünfte	-11.3323
▁Wesentlichen	-11.3323
▁beobachten	-11.3323
▁dignity	-11.3323
▁sexuelle	-11.3323
▁Serbien	-11.3323
▁permitted	-11.3324
▁deswegen	-11.3324
▁vin	-11.3325
▁dargestellt	-11.3325
▁Finland	-11.3325
1%	-11.3326
▁disasters	-11.3326
▁rare	-11.3328
▁Gall	-11.3328
▁retail	-11.3328
▁Stability	-11.3329
▁Sektoren	-11.3331
-4	-11.3331
vollen	-11.3332
ifying	-11.3332
wohn	-11.3333
▁Kara	-11.3333
▁justified	-11.3334
mächtig	-11.3335
▁Schulung	-11.3335
fahrzeuge	-11.3336
Zu	-11.3336
▁Fahrer	-11.334
gerecht	-11.3346
▁hospital	-11.3347
schuss	-11.3347
▁bekommt	-11.3348
▁poll	-11.3348
kräftig	-11.3349
▁Panorama	-11.3349
▁Donnerstag	-11.3349
▁aktualisiert	-11.3349
▁verletzt	-11.3349
▁climb	-11.3349
▁Extrem	-11.3349
▁Domain	-11.335
▁Wartung	-11.3351
▁none	-11.3356
start	-11.3357
▁aufgeführt	-11.3358
▁vorgesehenen	-11.3359
USS	-11.3361
▁speaker	-11.3363
▁großem	-11.3364
Bericht	-11.3366
power	-11.3375
klar	-11.3376
▁encouraging	-11.3376
▁Befehl	-11.3376
▁Versammlung	-11.3378
▁nord	-11.3379
▁string	-11.338
ober	-11.3381
▁mussten	-11.3383
▁skiing	-11.3384
▁approve	-11.3385
▁solely	-11.3385
tec	-11.3387
▁Ham	-11.3387
▁locations	-11.3388
jan	-11.3391
gebieten	-11.3393
▁savings	-11.3395
▁Volkswirtschaft	-11.3396
VE	-11.3396
▁Brücke	-11.3398
▁lib	-11.3402
phon	-11.3402
▁nachdrücklich	-11.3403
▁Fremdenverkehr	-11.3403
▁begleitet	-11.3403
▁einbezogen	-11.3403
▁Valley	-11.3405
▁Bezeichnung	-11.3406
▁permission	-11.3408
▁stake	-11.3408
▁bisherigen	-11.3409
▁SC	-11.341
▁routes	-11.341
▁portal	-11.3413
cate	-11.3413
essel	-11.3414
▁Select	-11.3417
lösen	-11.3417
▁sad	-11.342
▁continuous	-11.3421
▁reservations	-11.3422
Cha	-11.3424
▁Wissenschaftler	-11.3425
▁Ali	-11.3425
▁verfügbaren	-11.3429
▁welcomed	-11.3429
körper	-11.3429
▁Saturday	-11.343
▁Wälder	-11.343
▁execution	-11.343
▁engagiert	-11.343
▁Register	-11.343
▁Wählen	-11.343
▁superior	-11.343
rl	-11.343
lied	-11.3438
▁MB	-11.3439
▁investieren	-11.3441
lash	-11.3442
tti	-11.3446
▁Prüf	-11.3449
2005	-11.3451
drücke	-11.3453
scheid	-11.3454
▁Entwickler	-11.3456
fla	-11.3457
▁Nachhaltigkeit	-11.3457
▁anzuzeigen	-11.3457
▁prosperity	-11.3457
▁William	-11.3457
▁Abhängigkeit	-11.3458
▁effizienter	-11.3458
▁ehrlich	-11.3458
▁Dafür	-11.3459
▁Among	-11.346
▁unterscheiden	-11.3462
▁gefragt	-11.3462
▁Anstieg	-11.3463
▁Area	-11.3464
▁excluded	-11.3468
ifies	-11.3471
bericht	-11.3472
wich	-11.3473
▁Prozesse	-11.3474
▁Todes	-11.3477
lom	-11.348
kol	-11.3481
▁violations	-11.3484
▁introducing	-11.3485
▁jurisdiction	-11.3485
▁sought	-11.3485
▁unterstreichen	-11.3485
▁Albania	-11.3485
▁behaupten	-11.3485
▁Augenblick	-11.3485
tory	-11.3486
▁appointment	-11.3487
▁preventing	-11.3488
▁trademark	-11.3488
▁overview	-11.3488
▁remained	-11.349
▁Kulturen	-11.3491
schlagen	-11.3491
folgen	-11.3494
▁Bü	-11.3501
life	-11.3505
▁teile	-11.3507
▁schwach	-11.3507
▁gesetzlich	-11.3508
▁Roth	-11.3509
▁shares	-11.351
▁Programmen	-11.351
▁Straßburg	-11.3512
▁Richard	-11.3512
▁definitiv	-11.3512
▁penalty	-11.3512
Frühstücksbuffet	-11.3512
▁Cup	-11.3512
▁befasst	-11.3512
▁Micro	-11.3513
▁systematisch	-11.3513
instrumente	-11.3515
▁übrigens	-11.3515
▁Cross	-11.3517
▁sink	-11.352
▁Pilot	-11.3521
72	-11.3522
istisch	-11.3526
gging	-11.3528
motor	-11.3529
▁explained	-11.353
▁Verzeichnis	-11.353
▁prospect	-11.3534
rous	-11.3535
▁saved	-11.3536
AI	-11.3536
▁graphic	-11.3537
▁erarbeitet	-11.3539
▁präsentieren	-11.3539
▁verdienen	-11.3539
▁Daniel	-11.3539
▁begründet	-11.354
▁richtet	-11.3541
▁sounds	-11.3545
horn	-11.3545
▁Umsatz	-11.3545
▁leichter	-11.3546
lev	-11.3549
▁Ebenen	-11.3551
▁Volkes	-11.3553
MC	-11.3555
city	-11.3556
2007	-11.3557
▁gained	-11.3559
▁missing	-11.3563
küste	-11.3563
▁hinder	-11.3564
▁starten	-11.3564
spiele	-11.3566
▁equivalent	-11.3566
▁gestärkt	-11.3566
▁panoramic	-11.3566
▁clarify	-11.3566
▁Katastrophen	-11.3568
▁Konsequenzen	-11.3569
▁enhanced	-11.3569
lassung	-11.357
▁suggested	-11.3572
▁Berliner	-11.3572
▁reflected	-11.3574
té	-11.3577
▁remarks	-11.3578
▁Press	-11.358
▁Rule	-11.3583
seiten	-11.3585
▁pain	-11.3586
▁Job	-11.3586
▁enterprise	-11.3587
▁verwende	-11.3592
▁Friendly	-11.3594
▁Gefängnis	-11.3594
▁Konsultation	-11.3594
▁Strasbourg	-11.3594
▁forthcoming	-11.3594
▁Nigeria	-11.3594
▁absence	-11.3594
zieht	-11.3596
LU	-11.3597
▁zukünftigen	-11.3602
vie	-11.3603
▁Asian	-11.3604
▁Lernen	-11.3604
▁PSE	-11.3604
▁coll	-11.3607
▁considering	-11.3608
▁Pap	-11.3609
artig	-11.3609
gibt	-11.3612
▁electric	-11.3612
▁wert	-11.3613
gründe	-11.3615
förderung	-11.3616
wettbewerbsfähig	-11.3618
▁Hal	-11.362
▁enabling	-11.3622
▁kombiniert	-11.3622
▁Übrigen	-11.3622
schlüssel	-11.3622
▁nutzt	-11.3622
▁Trotzdem	-11.3622
▁Einstellungen	-11.3624
▁Euch	-11.3625
▁Labor	-11.3626
▁poly	-11.3626
tore	-11.3638
▁hydro	-11.364
hrung	-11.3643
tention	-11.3645
▁Bemerkung	-11.3645
▁selling	-11.3645
lik	-11.3645
▁umfassend	-11.3647
▁herrliche	-11.3647
▁NO	-11.3647
▁resident	-11.3648
▁classes	-11.3649
▁Abschaffung	-11.3649
▁gekennzeichnet	-11.3649
▁Vizepräsident	-11.3649
▁Erzeuger	-11.3649
▁supervision	-11.365
▁bag	-11.365
▁Betten	-11.3655
▁escape	-11.3656
fon	-11.3659
begriff	-11.3661
▁Temp	-11.3665
▁progressive	-11.3665
schwä	-11.3665
4)	-11.3665
▁directory	-11.3667
mpel	-11.3667
zeichnung	-11.3668
etch	-11.3669
ssig	-11.3669
▁Videos	-11.3671
▁attempts	-11.3671
FF	-11.3672
▁Disk	-11.3672
rated	-11.3674
steht	-11.3674
▁Planeten	-11.3675
wärts	-11.3677
▁Should	-11.3677
▁herunterladen	-11.3677
2/	-11.3678
▁cells	-11.3679
▁hospitality	-11.3679
▁Länge	-11.3679
verse	-11.368
▁natürliche	-11.3681
▁Fran	-11.3681
werke	-11.3682
svertrag	-11.3688
EST	-11.3689
sprinzip	-11.3692
▁stellte	-11.3692
▁angebracht	-11.3697
▁Investitions	-11.3697
▁kleinere	-11.3703
verarbeitung	-11.3705
▁elsewhere	-11.3705
▁Bildschirm	-11.3705
▁roof	-11.3706
▁upper	-11.3706
▁formuliert	-11.3707
▁unterliegen	-11.3707
▁fans	-11.371
▁portfolio	-11.3713
spezifische	-11.3714
▁Satz	-11.3715
▁directed	-11.3718
6/	-11.3719
viv	-11.3719
▁Mill	-11.3721
▁31.	-11.3722
sausschusses	-11.3724
werten	-11.3724
ographische	-11.3725
▁(4	-11.3731
▁schicken	-11.3732
▁Bereitschaft	-11.3732
▁Gehminuten	-11.3732
▁überprüft	-11.3733
höhe	-11.3733
All	-11.3733
▁shock	-11.3733
▁preference	-11.3735
▁generations	-11.3737
FC	-11.3738
scheiden	-11.374
▁Eck	-11.3742
▁Zielen	-11.3748
▁tower	-11.3748
forderung	-11.3753
▁(*	-11.3755
▁imports	-11.3757
▁Faktor	-11.3757
beauftragten	-11.3758
litz	-11.3759
160;	-11.376
▁complicated	-11.376
▁societies	-11.376
▁ordinary	-11.376
▁sharing	-11.376
erstattung	-11.3761
▁fees	-11.3761
▁froh	-11.3762
▁logo	-11.3763
ference	-11.3763
▁invited	-11.3765
▁obstacles	-11.3766
▁Kit	-11.3768
rain	-11.3772
▁underline	-11.3774
▁observe	-11.3776
▁gefallen	-11.3777
ivilgesellschaft	-11.3784
▁Übergang	-11.3785
▁liked	-11.3785
▁ME	-11.3786
cover	-11.3786
quote	-11.3787
▁Unterricht	-11.3788
schirm	-11.3788
▁Existenz	-11.3788
▁Joseph	-11.3788
▁disadvantage	-11.3788
▁hilfreich	-11.3788
▁Location	-11.3788
▁versichern	-11.3788
▁angekündigt	-11.3789
▁festzulegen	-11.3789
▁programming	-11.379
▁Parkplätze	-11.379
▁Geneva	-11.3791
▁betrieben	-11.3792
▁wechseln	-11.3797
▁Alles	-11.3798
▁pas	-11.38
▁spo	-11.38
▁earn	-11.3801
▁Arbeiter	-11.3802
other	-11.3805
VO	-11.3806
ographie	-11.3808
chron	-11.3808
▁abend	-11.3808
▁Internationale	-11.3809
fluss	-11.3811
▁Binnenmarktes	-11.3814
▁filled	-11.3814
▁icon	-11.3814
▁restructuring	-11.3816
▁creature	-11.3816
▁präzise	-11.3817
▁Volksgesundheit	-11.3817
▁kontrollieren	-11.3817
▁Muster	-11.3819
▁gebeten	-11.382
7%	-11.3821
▁spec	-11.3822
▁Kohle	-11.3824
luft	-11.3824
▁mine	-11.3826
▁Summe	-11.3827
▁geringe	-11.3827
▁wenigsten	-11.3829
schaften	-11.383
▁jetzigen	-11.3831
▁Mach	-11.3837
▁Mah	-11.3839
▁Betrug	-11.384
▁interne	-11.3841
▁recognized	-11.3841
▁Make	-11.3842
▁nights	-11.3842
▁Katastrophe	-11.3843
▁Mexiko	-11.3845
▁ruin	-11.3846
▁Armen	-11.3847
▁contributed	-11.3847
▁Ratifizierung	-11.3847
bruch	-11.3848
▁Mauer	-11.3849
▁soil	-11.3849
▁hierfür	-11.3849
ektor	-11.3853
▁Hä	-11.3854
▁Based	-11.3856
▁losses	-11.3857
fug	-11.3858
kat	-11.3858
branche	-11.3859
▁outline	-11.386
▁Lind	-11.387
▁Modelle	-11.3872
▁erhoben	-11.3873
grenz	-11.3874
▁Geschenk	-11.3874
▁folder	-11.3874
▁Finanzkrise	-11.3874
▁productivity	-11.3874
▁Revision	-11.3877
zuführen	-11.3879
▁reward	-11.3879
▁allocated	-11.3879
prinzip	-11.3885
atik	-11.3886
▁Designer	-11.389
▁stars	-11.3892
gne	-11.3895
то	-11.3901
▁Erd	-11.3901
▁Society	-11.3901
▁Höchst	-11.3901
▁läßt	-11.3901
▁obliged	-11.3901
▁geographical	-11.3901
▁gedacht	-11.3901
▁großartige	-11.3902
▁HIV	-11.3903
▁zurückzuführen	-11.3903
▁normalen	-11.3903
▁paying	-11.3903
▁everybody	-11.3903
▁hingegen	-11.3904
▁derzeitige	-11.3904
▁Veränderung	-11.3904
▁rufen	-11.3905
▁trends	-11.3905
▁Mul	-11.3906
▁dankbar	-11.3906
▁Lot	-11.3906
▁native	-11.3908
▁normally	-11.3911
▁refuse	-11.3911
▁Gay	-11.3913
▁Bell	-11.3915
▁exports	-11.3916
ario	-11.3916
▁Getränke	-11.3917
▁Sieg	-11.3919
▁optional	-11.3921
▁Dritte	-11.3921
▁Profit	-11.3922
max	-11.3922
▁bri	-11.3922
▁Branchen	-11.3925
▁Word	-11.3925
▁lieber	-11.3927
▁Culture	-11.393
▁Protocol	-11.393
▁excursion	-11.393
▁robust	-11.393
fuhr	-11.3931
conscious	-11.3932
▁theory	-11.3933
▁vereint	-11.3933
▁Hong	-11.3937
▁ergibt	-11.3937
▁ECB	-11.3939
▁frisch	-11.394
staatliche	-11.3943
▁Ker	-11.3945
▁Denk	-11.395
▁Konfiguration	-11.3951
▁Positionen	-11.3952
▁überlassen	-11.3953
▁ruhige	-11.3956
Pri	-11.3957
para	-11.3957
▁Wärme	-11.3958
▁Zürich	-11.3958
▁fabric	-11.3958
▁luxuriöse	-11.3958
▁negotiating	-11.3958
▁Auditors	-11.3958
▁NGOs	-11.3958
▁bottle	-11.3959
▁ethnische	-11.3959
▁verboten	-11.3959
▁integrierte	-11.396
▁beruhen	-11.3961
spiegel	-11.3961
▁lived	-11.3962
▁gate	-11.3962
▁feet	-11.3965
getragen	-11.3966
▁combine	-11.3968
zulegen	-11.397
labor	-11.3977
▁Pal	-11.398
▁lots	-11.3981
▁suffered	-11.3983
▁vorgeschlagene	-11.3986
▁parliament	-11.3986
▁erfordern	-11.3987
▁pretty	-11.3987
▁heißen	-11.3987
▁gewaltige	-11.3988
▁Kanada	-11.3988
▁scheinen	-11.3991
▁Glo	-11.3995
▁kg	-11.3995
regierung	-11.3995
▁Schreiben	-11.3997
▁Brenn	-11.3998
shilfe	-11.3999
geschlagen	-11.4003
▁Mak	-11.4005
▁XP	-11.4007
="	-11.4007
▁CE	-11.4007
Gu	-11.4008
▁Lib	-11.4011
elemente	-11.4013
▁weltweite	-11.4014
▁39	-11.4014
▁Dokumentation	-11.4015
▁Corporate	-11.4015
▁gelingt	-11.4015
▁Koch	-11.4018
MT	-11.4019
▁offizielle	-11.4022
▁collected	-11.4023
uz	-11.4024
▁DO	-11.4024
erklärung	-11.4028
▁Fertigung	-11.4033
▁Histori	-11.4036
▁indirekt	-11.4037
▁offiziellen	-11.4038
glas	-11.4038
▁Stern	-11.4039
▁SD	-11.4039
▁recover	-11.404
▁Bol	-11.404
▁Zahlungen	-11.4041
▁COM	-11.4043
Prozess	-11.4043
▁Betreiber	-11.4044
▁Formulierung	-11.4044
▁Präsentation	-11.4044
▁potenziell	-11.4044
▁aufgebaut	-11.4044
▁Vorausschau	-11.4044
▁Jesus	-11.4044
▁Doppelzimmer	-11.4045
▁Modernisierung	-11.4045
▁falsche	-11.4045
▁clubs	-11.4045
▁sky	-11.4046
▁blu	-11.405
▁enthaltenen	-11.4051
▁(10	-11.4056
▁partition	-11.4056
▁klaren	-11.4057
▁Ursachen	-11.4058
▁Beide	-11.406
kapazität	-11.4061
▁Praktiken	-11.4062
▁Situationen	-11.4063
FO	-11.4065
▁Tau	-11.4068
pil	-11.4069
Staaten	-11.4072
▁eignet	-11.4073
▁geregelt	-11.4073
▁Verfasser	-11.4073
▁chat	-11.4073
▁Auseinandersetz	-11.4074
▁Persönlichkeit	-11.4075
▁Nazi	-11.4076
▁Spi	-11.4076
gelegen	-11.4076
show	-11.4078
▁regardless	-11.408
▁theatre	-11.408
lé	-11.4088
▁engaged	-11.409
▁whereas	-11.4091
TT	-11.4092
▁tausend	-11.4092
!!!	-11.4093
▁EX	-11.4093
8/	-11.4094
▁unabhängigen	-11.4098
install	-11.4099
▁desk	-11.4101
▁ausländische	-11.4101
▁Ausschüsse	-11.4102
▁unforgettable	-11.4102
▁brother	-11.4102
faktor	-11.4102
▁Easy	-11.4102
▁ser	-11.4103
ndung	-11.4104
▁Felder	-11.4104
session	-11.4106
▁Captain	-11.411
ALE	-11.4112
▁Außenminister	-11.4113
▁mehrfach	-11.4114
▁bedanken	-11.4117
gew	-11.4117
hafen	-11.4118
▁Laser	-11.4119
▁suggestions	-11.4119
▁Sto	-11.4126
▁looked	-11.4127
▁Amts	-11.4127
▁originally	-11.4128
rop	-11.4128
▁besonderer	-11.4128
▁surely	-11.413
verständnis	-11.413
▁Kriminalität	-11.4131
▁welcoming	-11.4131
▁Rechner	-11.4131
▁Gewerkschaft	-11.4131
▁japanische	-11.4131
▁Dir	-11.4132
▁Ausrüstung	-11.4132
▁semi	-11.4132
▁errors	-11.4132
uth	-11.4133
▁labelling	-11.4133
▁taxi	-11.4134
▁è	-11.4134
4/	-11.4135
▁faith	-11.4135
▁hills	-11.4136
▁bond	-11.4138
IF	-11.4138
▁angenehm	-11.4139
gestaltung	-11.414
kom	-11.4142
▁dramatisch	-11.4144
▁Palma	-11.4148
profil	-11.4153
▁modules	-11.4159
[	-11.4159
▁Betreuung	-11.416
▁Communication	-11.416
▁Publikum	-11.416
▁Secretary	-11.416
▁bewältigen	-11.416
gebäude	-11.416
▁Regierungschefs	-11.416
▁Komplett	-11.416
▁functionality	-11.4163
▁transferred	-11.4163
▁Übernahme	-11.4164
▁student	-11.4164
▁trips	-11.4165
▁Allah	-11.4167
▁niederländische	-11.4167
▁acceptance	-11.4169
▁lessons	-11.4169
elli	-11.4171
steck	-11.4171
Bar	-11.4173
▁bauen	-11.4173
▁imagin	-11.4173
▁Does	-11.4174
▁Leiter	-11.4176
amo	-11.4178
▁Hindernisse	-11.4184
▁organic	-11.4184
▁Genf	-11.4184
▁sensor	-11.4187
▁Industry	-11.4189
▁UNESCO	-11.4189
▁Verwirklichung	-11.4189
▁Genießen	-11.4189
▁Millennium	-11.4189
▁Beurteilung	-11.4189
▁Finnland	-11.4189
▁Ferienwohnung	-11.4189
▁Suiten	-11.4191
▁efficiently	-11.4194
▁Maxim	-11.4194
▁turning	-11.4195
fenster	-11.4197
greift	-11.4197
▁preserve	-11.42
fekt	-11.4201
▁covering	-11.4203
▁novel	-11.4203
▁leichte	-11.4204
▁united	-11.4205
▁freedoms	-11.4205
aka	-11.4206
phil	-11.4207
▁Bereits	-11.421
kühl	-11.4215
▁Brit	-11.4216
▁Erwägung	-11.4218
html	-11.4218
▁müsste	-11.4219
▁Venice	-11.4219
▁everywhere	-11.422
▁underground	-11.422
▁anschließen	-11.4223
▁detaillierte	-11.4224
▁analog	-11.4226
▁determination	-11.4226
▁Taxi	-11.4226
▁außen	-11.4227
▁entering	-11.4228
WA	-11.4229
▁Zins	-11.4234
▁sole	-11.4237
▁Generationen	-11.4237
▁subsequent	-11.4238
▁dei	-11.4241
▁Jugendlichen	-11.4241
▁bedauerlich	-11.4241
ALL	-11.4242
▁har	-11.4242
▁Rang	-11.4244
▁sights	-11.4248
▁konfrontiert	-11.4248
▁unentgeltlich	-11.4248
▁Andererseits	-11.4248
▁Entfernung	-11.4248
▁premium	-11.4248
▁Gegner	-11.4248
▁Universal	-11.4248
▁URL	-11.4248
▁motorway	-11.4251
▁Anders	-11.4252
▁thermal	-11.4252
▁Minute	-11.4255
▁transform	-11.4256
▁Schlaf	-11.4257
▁hundert	-11.4259
ander	-11.4265
▁mill	-11.4268
IO	-11.4268
▁44	-11.427
public	-11.4276
▁enforce	-11.4276
▁Währungsunion	-11.4277
▁audience	-11.4277
▁behauptet	-11.4277
▁Prince	-11.4277
▁erbaut	-11.4279
zehn	-11.4279
▁Nikon	-11.428
▁externe	-11.428
▁Quelle	-11.428
▁barriers	-11.4281
ähl	-11.4284
reihe	-11.4284
▁reaching	-11.4285
▁cancel	-11.4291
▁Nachteil	-11.4293
screen	-11.4294
▁vessels	-11.4295
otic	-11.4295
lop	-11.4296
▁Kunststoff	-11.4297
▁Classic	-11.4301
steller	-11.4302
ush	-11.4303
▁erklärte	-11.4306
▁Vereinfachung	-11.4306
▁beabsichtigt	-11.4306
▁ergänzt	-11.4306
▁stattfindet	-11.4306
▁universities	-11.4306
▁Representative	-11.4307
▁collapse	-11.4307
▁vergleichbar	-11.4307
▁deeply	-11.4307
▁Samstag	-11.4307
▁Innenstadt	-11.4307
▁grossen	-11.431
▁peak	-11.4311
▁gesetzlichen	-11.4313
▁Komp	-11.4313
▁Dokumenten	-11.4314
▁gesunde	-11.4314
tribu	-11.4317
▁pull	-11.432
▁vorliegende	-11.432
äge	-11.4321
▁strengthened	-11.4328
▁internationally	-11.4329
colo	-11.433
NY	-11.4331
▁Verbrauch	-11.4331
iling	-11.4334
▁Ablehnung	-11.4336
▁Performance	-11.4336
▁berechnet	-11.4336
▁parameters	-11.4336
▁amazing	-11.4336
▁sovereignty	-11.4337
▁sections	-11.4337
▁Cooperation	-11.4338
museum	-11.4338
Team	-11.4339
▁Erwerb	-11.434
▁1960	-11.4343
▁Marco	-11.4343
boden	-11.4343
▁Print	-11.4344
▁Nachbarn	-11.4344
▁emerge	-11.4349
▁Sex	-11.4351
▁Nero	-11.4353
▁till	-11.4355
break	-11.4358
▁Fang	-11.4358
▁exact	-11.4359
EF	-11.4364
iev	-11.4366
▁Consequently	-11.4366
▁Slovenia	-11.4366
▁koordiniert	-11.4366
▁vegetable	-11.4366
▁Passagier	-11.4366
▁fishermen	-11.4366
▁qualification	-11.4366
▁endeavour	-11.4366
▁erweitern	-11.4366
▁beschränken	-11.4366
▁Bosnia	-11.4366
▁Empire	-11.4366
▁Letzte	-11.4368
▁considerably	-11.4369
gefertigt	-11.4369
▁consulting	-11.4369
▁schweren	-11.437
▁Aufzug	-11.4375
rock	-11.4375
▁Arena	-11.4377
▁Obst	-11.4377
▁Ring	-11.4381
▁ansehen	-11.4385
▁autonom	-11.4386
▁Kir	-11.4388
▁abschließend	-11.4388
▁Schwer	-11.439
▁PS	-11.4394
▁Richter	-11.4395
▁Sei	-11.4395
leute	-11.4395
Facilities	-11.4396
▁Lateinamerika	-11.4396
▁appropriations	-11.4396
▁sponsor	-11.4396
▁Mängel	-11.4396
▁anzuwenden	-11.4396
▁percentage	-11.4397
▁pod	-11.4399
▁türkischen	-11.44
▁scan	-11.44
▁rechten	-11.44
▁bearing	-11.4402
▁wachsende	-11.4403
▁Sachen	-11.4405
▁saving	-11.4407
▁arch	-11.4407
▁timetable	-11.4407
vari	-11.4408
▁briefly	-11.4408
▁Fundamental	-11.4409
▁Zer	-11.4409
TION	-11.441
▁einmalige	-11.4411
standing	-11.4413
▁wellness	-11.4417
▁Guests	-11.4418
▁Segel	-11.442
▁ministers	-11.4422
SH	-11.4423
▁Feind	-11.4424
▁anzubieten	-11.4425
▁besorgt	-11.4425
▁sustainability	-11.4426
▁olive	-11.4426
bol	-11.4426
▁umsetzen	-11.4429
map	-11.443
rog	-11.4434
▁plain	-11.4434
▁surf	-11.4439
flächen	-11.4442
▁superb	-11.4443
▁conc	-11.4443
UP	-11.4444
▁skill	-11.4446
generation	-11.4446
▁Rein	-11.4447
tax	-11.4452
▁reisen	-11.4453
▁extract	-11.4453
geworfen	-11.4455
▁Academy	-11.4455
▁Einwanderer	-11.4455
▁auffordern	-11.4455
▁erfreut	-11.4455
▁Ägypten	-11.4455
▁convey	-11.4455
▁College	-11.4455
▁kernel	-11.4455
▁shuttle	-11.4455
Wirtschaftskrise	-11.4456
▁picturesque	-11.4457
▁Benutzung	-11.4458
▁ports	-11.4459
▁admit	-11.4459
German	-11.4459
▁steigen	-11.4459
▁Anmeldung	-11.446
▁kit	-11.4463
▁travelling	-11.4463
▁Roll	-11.4466
▁innere	-11.4466
▁arrest	-11.4468
▁rating	-11.4469
▁oldest	-11.447
▁Ablauf	-11.4471
▁leiten	-11.4472
anta	-11.4472
metric	-11.4473
wang	-11.4473
regionen	-11.4474
master	-11.4476
vorschriften	-11.4476
DC	-11.448
versicherung	-11.4481
▁branch	-11.4482
▁Argumente	-11.4484
▁Florenz	-11.4485
▁Todesstrafe	-11.4485
▁eingeschränkt	-11.4485
▁normalerweise	-11.4486
▁referring	-11.4488
▁Überblick	-11.4488
▁finger	-11.4488
isk	-11.4491
▁Tonnen	-11.4492
▁associations	-11.4492
▁score	-11.4493
verein	-11.4493
duction	-11.4493
▁Erhalt	-11.4494
▁Sho	-11.4494
hau	-11.4495
▁Zeile	-11.4496
▁ended	-11.4496
▁mittlere	-11.4497
▁Source	-11.4498
It	-11.4501
zweig	-11.4501
▁Oper	-11.4506
▁integrierten	-11.4515
▁Bestätigung	-11.4515
▁Düsseldorf	-11.4515
▁Französisch	-11.4515
▁EZB	-11.4515
▁CHF	-11.4516
nbsp	-11.4516
▁denjenigen	-11.4516
▁überwinden	-11.4516
▁Schön	-11.4516
▁reliability	-11.4516
▁Museen	-11.4517
▁Immer	-11.4517
▁deutliche	-11.4519
DER	-11.452
bindung	-11.452
▁treatments	-11.4521
▁limitation	-11.4521
Jo	-11.4522
▁Betriebe	-11.4524
▁zeitlich	-11.4525
▁Leit	-11.4525
▁Gerichts	-11.4526
block	-11.4527
▁carte	-11.4529
▁LA	-11.4529
personal	-11.4532
Bereich	-11.4533
8%	-11.4533
▁Come	-11.4534
▁Fernsehen	-11.4536
▁Marc	-11.4537
dding	-11.4539
even	-11.454
ämm	-11.4541
▁museums	-11.4542
Mon	-11.4543
▁Wand	-11.4543
KOM	-11.4544
schritt	-11.4545
▁Quark	-11.4546
▁bearbeiten	-11.4546
Commerce	-11.4546
▁smart	-11.4546
▁catalogue	-11.4546
Ta	-11.4548
▁bewegt	-11.4549
wahr	-11.4549
etto	-11.4549
▁cabin	-11.4549
▁festgelegten	-11.455
cious	-11.455
▁king	-11.455
▁erteilt	-11.4552
▁Datum	-11.4553
▁zieht	-11.4553
▁videos	-11.4553
▁Stufe	-11.4555
▁momentan	-11.4555
▁adult	-11.4561
▁Canc	-11.4562
▁Audi	-11.4564
auto	-11.4569
▁Referendum	-11.4576
▁convenience	-11.4576
▁undoubtedly	-11.4576
▁column	-11.4576
▁Smart	-11.4576
▁Christmas	-11.4577
ergebnisse	-11.4577
▁concentration	-11.4578
▁anywhere	-11.458
▁Erste	-11.4582
▁Drittel	-11.4582
▁reflects	-11.4584
▁Lä	-11.4588
▁scientists	-11.459
▁coin	-11.4591
▁pin	-11.4593
OT	-11.4598
▁factory	-11.4604
▁Vermögen	-11.4606
▁Händler	-11.4606
▁Nachmittag	-11.4606
▁Phänomen	-11.4606
▁anniversary	-11.4606
▁demonstration	-11.4606
▁judgment	-11.4606
▁kümmern	-11.4606
▁supplied	-11.4606
▁bedroht	-11.4606
▁reputation	-11.4606
▁kompetent	-11.4606
▁targeted	-11.4607
▁Berechnung	-11.461
gur	-11.461
▁Ausblick	-11.4612
finanzierung	-11.4614
▁flu	-11.4615
▁prospects	-11.4616
▁wirken	-11.4616
▁Basel	-11.4617
nisse	-11.4623
▁frage	-11.4624
▁Fuss	-11.4626
▁Dingen	-11.4632
▁varied	-11.4633
klass	-11.4636
▁Rec	-11.4636
1999	-11.4636
▁Tschechische	-11.4637
▁Wikitravel	-11.4637
▁newsletter	-11.4637
▁Valencia	-11.4637
▁kreative	-11.4637
▁sharp	-11.4637
▁erzeugen	-11.4637
▁Emissions	-11.4638
▁Eröffnung	-11.4638
gau	-11.4639
▁compact	-11.464
▁Instruments	-11.4641
▁Betriebssystem	-11.4642
vat	-11.4645
▁hervorragend	-11.4646
club	-11.4647
ION	-11.465
lek	-11.4654
haupt	-11.4656
verhältnisse	-11.4657
▁Somit	-11.4658
kunft	-11.4659
glo	-11.4662
achtung	-11.4662
▁Big	-11.4662
▁dial	-11.4663
▁promise	-11.4664
zwingen	-11.4667
▁Pakete	-11.4667
▁Helsinki	-11.4667
▁verringert	-11.4667
▁signature	-11.4667
▁strikt	-11.4667
▁RO	-11.4668
▁vielfältige	-11.4669
anwendung	-11.467
▁Albert	-11.4671
▁Change	-11.4671
Kom	-11.4671
▁Kri	-11.4671
EP	-11.4672
▁tension	-11.4672
▁highlighted	-11.4674
▁Walk	-11.4677
▁toward	-11.4681
▁Logo	-11.4684
▁coordinated	-11.4684
asso	-11.469
▁Ausbau	-11.4691
▁vornehmen	-11.4692
gol	-11.4693
hir	-11.4695
Port	-11.4697
▁gegenwärtige	-11.4697
bringung	-11.4698
durchschnittlich	-11.4699
▁hoffentlich	-11.4699
RT	-11.4702
▁contextual	-11.4704
being	-11.4704
Stunden	-11.4705
Car	-11.4706
insel	-11.4707
DEN	-11.4709
▁Kirchen	-11.471
▁Laden	-11.4712
▁ordered	-11.472
▁hierzu	-11.4721
core	-11.4723
▁Wor	-11.4724
▁chief	-11.4724
▁spreche	-11.4724
▁firmly	-11.4725
lib	-11.4726
▁harmonisation	-11.4729
▁Ausarbeitung	-11.4729
▁älteste	-11.4729
▁Small	-11.4729
▁gleichermaßen	-11.473
▁72	-11.473
▁arising	-11.473
▁carrier	-11.473
▁indoor	-11.4731
▁Streit	-11.4731
▁illegale	-11.4732
▁listings	-11.4734
▁spanische	-11.4735
▁pump	-11.4736
artikel	-11.4737
▁Versionen	-11.4737
wall	-11.4738
▁Lin	-11.4739
▁oppose	-11.4741
▁recall	-11.4742
▁managing	-11.4742
▁intends	-11.4743
▁Zwar	-11.4743
zahlungen	-11.4745
▁strictly	-11.4746
▁decor	-11.4748
ifizierung	-11.475
▁Line	-11.4754
mount	-11.4754
▁Energien	-11.4754
tina	-11.4755
▁externen	-11.4759
▁necessarily	-11.476
▁exzellente	-11.476
▁gewähren	-11.476
▁Abendessen	-11.476
▁Konstruktion	-11.4761
▁Errichtung	-11.4766
treiben	-11.4768
▁essen	-11.4769
▁Hard	-11.477
▁Lohn	-11.4771
6-0	-11.4772
type	-11.4773
▁verweisen	-11.4774
▁Mechanismen	-11.4774
ivität	-11.4776
scrib	-11.4776
▁render	-11.4779
▁Greens	-11.4782
üng	-11.4784
▁Internetseite	-11.4784
iller	-11.4785
▁Maschine	-11.4791
▁stunning	-11.4791
▁müßte	-11.4791
aktivitäten	-11.4791
▁assigned	-11.4791
▁senken	-11.4791
▁Fremd	-11.4791
▁IMF	-11.4791
▁Warcraft	-11.4791
▁Möbel	-11.4791
▁Danish	-11.4792
ausgaben	-11.4792
▁scar	-11.4792
cap	-11.4793
▁Beachtung	-11.4794
▁Saal	-11.4795
▁Arc	-11.4798
▁350	-11.4798
▁Spring	-11.4799
▁Miß	-11.4799
▁Ratschlag	-11.4799
verletzungen	-11.48
mini	-11.4802
aktionen	-11.4804
info	-11.4805
iki	-11.4805
▁acquired	-11.4809
▁1:	-11.4809
führ	-11.4811
▁Grundlagen	-11.4811
stätten	-11.4812
▁hervorragenden	-11.4815
▁verständlich	-11.4815
▁Vier	-11.4818
mauer	-11.4819
▁Beteiligten	-11.4822
▁applicant	-11.4822
▁prosecut	-11.4822
▁twice	-11.4822
▁prevail	-11.4822
▁Feature	-11.4822
änze	-11.4823
nähe	-11.4824
DO	-11.4825
fertigung	-11.4825
▁ausgegeben	-11.4826
▁Rauch	-11.4827
▁exploitation	-11.4827
▁magic	-11.4829
▁Ausgleich	-11.4833
LL	-11.4833
▁estimate	-11.4834
▁Athen	-11.4836
▁militärischen	-11.4836
▁Franz	-11.4837
behandlung	-11.4837
▁besetzt	-11.4839
▁sogenannten	-11.4841
troph	-11.4845
verkauf	-11.4846
unta	-11.4853
▁Belgian	-11.4853
▁Saddam	-11.4853
▁discipline	-11.4853
▁array	-11.4853
▁Hauptbahnhof	-11.4853
▁terminal	-11.4854
fordert	-11.4854
▁Arbeitgeber	-11.4855
▁frühen	-11.4855
▁umwelt	-11.4856
▁Burma	-11.4857
Kohäsionspolitik	-11.4858
▁Früh	-11.4858
▁eigener	-11.4858
▁shot	-11.4858
▁beside	-11.4861
▁konstruktive	-11.4862
formular	-11.4862
ovo	-11.4864
uous	-11.4865
▁Laut	-11.4866
▁Speisen	-11.4867
Auf	-11.4869
▁tracks	-11.487
stop	-11.487
▁Order	-11.4871
lieferung	-11.4873
▁zeichnet	-11.4873
▁Jack	-11.4875
▁stocks	-11.4875
▁bezeichnen	-11.4876
▁Iron	-11.4877
still	-11.4879
▁digitale	-11.4882
mpli	-11.4883
▁portugiesische	-11.4884
▁stretch	-11.4884
▁cancellation	-11.4884
▁Premierminister	-11.4884
▁cuts	-11.4887
AX	-11.4887
▁favor	-11.4888
strom	-11.4888
▁prisoners	-11.4889
▁Erwachsene	-11.489
ström	-11.4891
▁Vorrang	-11.4891
▁30%	-11.4892
urteil	-11.4893
country	-11.4895
▁engage	-11.4895
stock	-11.4897
▁Syria	-11.4898
ringen	-11.4901
▁längst	-11.4906
▁attached	-11.4908
betriebe	-11.4911
▁Filme	-11.4912
▁Georgien	-11.4913
▁soul	-11.4913
▁Off	-11.4914
▁Ombudsman	-11.4916
▁tournament	-11.4916
▁mangelnde	-11.4916
▁Journalisten	-11.4916
▁empty	-11.4917
▁occurred	-11.4917
▁layout	-11.4918
▁Slovakia	-11.492
stärke	-11.4921
bestand	-11.4924
world	-11.4925
▁Gru	-11.4928
gehört	-11.4929
▁Tak	-11.493
▁genauer	-11.4932
plex	-11.4932
▁Yu	-11.4933
▁Pil	-11.4935
▁Tee	-11.4936
▁Acht	-11.4936
▁profits	-11.4938
▁songs	-11.494
geber	-11.4942
▁Ferr	-11.4942
▁individually	-11.4944
aufnahme	-11.4944
Energieeffizienz	-11.4945
▁Alkohol	-11.4947
▁Beseitigung	-11.4947
▁reagiert	-11.4947
takt	-11.4947
▁beinhalten	-11.4947
▁reconstruction	-11.4948
verlust	-11.4949
▁Rou	-11.4951
▁untersuchen	-11.4956
▁tested	-11.4957
▁Jahrzehnten	-11.496
▁Vorstand	-11.4961
▁jüngste	-11.4963
▁и	-11.4964
▁Tools	-11.4967
▁Luftverkehr	-11.4968
▁hill	-11.497
▁älteren	-11.497
▁Kino	-11.4971
▁Objekte	-11.4974
▁verschieden	-11.4975
▁Department	-11.4979
▁aggressive	-11.4979
▁coherent	-11.4979
▁erstklassige	-11.4979
▁geschätzt	-11.4979
▁phenomenon	-11.4979
▁Process	-11.4979
▁assembly	-11.4979
▁Tendenz	-11.4979
▁anhand	-11.4982
▁processed	-11.4983
▁Search	-11.4984
▁WE	-11.4984
▁printed	-11.4986
Spiel	-11.4989
sentwurf	-11.4991
▁environmentally	-11.4995
▁VIP	-11.5001
most	-11.5009
▁Premium	-11.501
▁gesammelt	-11.501
▁diplomatic	-11.5011
▁hiking	-11.5011
▁gradually	-11.5015
▁chinesische	-11.5015
▁sens	-11.5016
▁Constitutional	-11.5026
▁überaus	-11.5027
▁observed	-11.5031
quest	-11.5036
▁Tha	-11.5037
▁Por	-11.5038
▁Borg	-11.5039
▁schwierige	-11.5039
▁Activ	-11.5041
ressourcen	-11.5042
▁Präsenz	-11.5042
▁Dresden	-11.5042
▁crises	-11.5042
▁indication	-11.5043
▁blame	-11.5043
connect	-11.5043
[...]
